<unk>
<s>
</s>
the
of
,
.
and
to
in
a
for
@-@
on
)
(
that
/
by
with
as
is
be
its
at
:
was
united
;
it
are
from
nations
international
or
general
committee
"
an
this
development
rights
their
's
which
has
not
have
all
states
also
human
been
had
report
other
were
women
countries
will
should
national
council
security
information
under
support
1
would
such
state
resolution
including
programme
government
work
implementation
assembly
session
law
2
new
economic
activities
convention
special
commission
meeting
secretary
social
group
may
made
3
per
more
article
i
these
cooperation
conference
they
against
parties
we
system
those
through
one
draft
country
between
children
measures
regional
there
into
non
services
resources
management
action
organizations
office
number
his
cent
efforts
financial
working
agenda
any
level
-
assistance
organization
4
issues
during
party
b
world
health
5
well
public
member
members
review
further
ensure
mr.
process
provide
education
some
$
use
republic
people
staff
out
no
provided
10
paragraph
persons
developing
first
protection
he
up
two
order
training
programmes
6
political
policy
decision
legal
based
global
but
who
could
c
need
related
time
areas
high
item
right
within
year
period
can
secretariat
only
community
following
adopted
than
capacity
recommendations
gender
relevant
7
e
must
particular
held
president
take
however
mission
years
nuclear
access
being
over
reports
december
shall
technical
situation
peace
trade
if
effective
part
violence
regard
board
them
court
budget
while
continue
since
taken
2005
representative
progress
2008
8
2010
among
most
15
both
12
established
plan
2006
about
many
d
fund
role
important
2009
service
our
sustainable
june
9
2007
framework
respect
11
2004
2011
so
cases
civil
africa
meetings
s
present
data
accordance
30
where
institutions
consideration
14
local
groups
child
discrimination
policies
justice
note
operations
million
project
developed
second
13
building
before
when
2003
case
three
police
criminal
sector
2012
20
south
specific
basis
continued
proposed
2002
field
july
increase
society
noted
same
act
total
available
ii
appropriate
african
necessary
2000
humanitarian
18
view
see
[
weapons
'
area
poverty
region
16
include
possible
participation
needs
each
make
delegation
without
october
population
force
full
treaty
conflict
military
address
2001
concerned
set
provisions
issue
environment
coordination
additional
considered
after
november
september
]
promote
status
submitted
document
disarmament
governments
annex
increased
technology
monitoring
particularly
addition
17
department
2013
agreement
required
current
importance
executive
control
requirements
therefore
third
projects
representatives
levels
affairs
31
authorities
1999
rules
used
end
place
account
reporting
19
european
various
administrative
impact
adoption
term
said
union
given
section
march
protocol
upon
21
bodies
peacekeeping
private
future
change
approach
indigenous
agencies
strategy
statement
advisory
comprehensive
personnel
family
rule
prevention
declaration
crime
rapporteur
1998
25
towards
major
mandate
domestic
22
do
her
several
establishment
permanent
legislation
terrorism
january
systems
conditions
concern
--
april
agreed
goals
context
joint
24
received
principles
provision
standards
costs
resolutions
23
requested
above
food
governmental
risk
armed
results
regarding
practices
requests
contained
assessment
environmental
attention
concerning
central
mechanisms
challenges
centre
strengthening
procedures
equality
research
care
contributions
expressed
foreign
request
addressed
included
space
cultural
existing
key
strengthen
ministry
employment
undp
inter
follow
relating
small
result
planning
26
response
improve
consider
responsibility
implement
now
reported
funds
experts
strategic
trafficking
question
labour
victims
post
27
especially
table
financing
treatment
water
promotion
agency
peoples
no.
28
means
consultations
iii
matters
february
fully
obligations
she
long
terms
whether
making
cost
initiatives
significant
main
decisions
democratic
income
due
annual
providing
forces
missions
dialogue
men
panel
energy
provides
different
reduction
life
how
way
statements
regular
*
organized
documents
august
evaluation
entitled
taking
funding
did
subject
procedure
according
authority
lack
administration
notes
reform
develop
recent
recommendation
palestinian
operational
land
common
investment
29
commitment
least
forum
p
actions
para
sexual
because
growth
free
my
still
east
thus
climate
very
arab
hiv
practice
five
example
forms
2014
delegations
mechanism
arms
amount
official
production
division
does
application
performance
focus
what
biennium
four
provisional
unit
establish
internal
partners
author
informal
rate
communication
list
equipment
violations
ms.
priority
independent
supported
date
recommended
awareness
fact
help
another
fourth
questions
director
discussion
promoting
business
analysis
guidelines
1997
needed
communities
implemented
strategies
communications
rural
f
integrated
called
headquarters
refugees
bank
territory
agreements
age
tribunal
laws
us
fifth
implementing
girls
america
room
decided
self
quality
responsible
offices
expected
prevent
problems
letter
asia
60
millennium
aids
knowledge
currently
opportunities
good
even
basic
day
property
committed
although
resource
like
individual
objectives
affected
approved
initiative
plans
iraq
facilities
p.m.
workers
pursuant
greater
al
recommends
acts
conduct
previous
israel
school
officers
posts
code
adequate
instruments
chairman
equal
disabilities
summary
certain
limited
essential
own
serious
expert
facilitate
involved
already
informed
achieve
best
position
better
early
a.
proposals
aimed
person
potential
overall
arrangements
covenant
steps
safety
processes
50
ensuring
regulations
stated
enhance
market
behalf
issued
open
minister
form
compliance
proposal
together
principle
articles
commissioner
carried
china
able
study
took
matter
large
interest
torture
medical
fifty
universal
crisis
geneva
participants
benefits
meet
’
prepared
purpose
increasing
might
detention
often
conducted
40
undertaken
having
exchange
governance
line
below
partnership
evidence
judicial
understanding
multilateral
living
aspects
yet
infrastructure
past
clear
b.
assist
unctad
unicef
dated
individuals
institutional
1996
items
media
natural
concerns
g
operation
primary
iv
outcome
officials
paragraphs
israeli
contribute
nature
become
substantive
drug
freedom
enforcement
presented
negotiations
every
functions
protect
last
contribution
identified
crimes
constitution
%
intergovernmental
fundamental
next
transfer
claims
great
changes
recognized
reference
un
remains
remain
body
de
centres
statistics
value
indicators
combat
integration
federation
others
commitments
sixty
opportunity
higher
“
legislative
russian
york
transport
proliferation
light
views
introduction
objective
six
experience
power
sessions
final
entities
elimination
?
team
57
found
summit
revised
families
preparation
problem
regions
give
sudan
positive
ongoing
vote
improving
reduce
manner
achieved
voluntary
governing
civilian
exercise
stakeholders
procurement
charter
institute
forward
indicated
audit
co
65
months
critical
young
discussions
guidance
periodic
kingdom
chair
58
effectiveness
55
improved
trust
59
low
scientific
days
economy
welcomed
referred
effect
proceedings
direct
furthermore
sixth
youth
network
throughout
unep
pacific
rates
effects
2015
connection
62
schools
war
former
estimated
61
task
emergency
aid
unhcr
point
participate
despite
material
signed
64
less
comments
sources
capital
purposes
abuse
active
sectors
wide
1995
effectively
text
priorities
poor
includes
wish
calls
benefit
you
scope
led
elections
addressing
course
plenary
situations
professional
elements
canada
35
63
collaboration
53
continues
prior
sub
relations
hours
until
anti
”
educational
allow
association
consensus
assets
expenditure
external
investigation
using
lead
enable
movement
japan
require
travel
core
officer
52
technologies
developments
vulnerable
territories
peaceful
delivery
54
partnerships
submit
then
maintenance
optional
32
66
twenty
claim
finance
range
housing
europe
put
materials
compensation
much
federal
56
urban
achieving
goal
treaties
border
source
34
mentioned
effort
circumstances
33
congo
supporting
activity
cannot
c.
encouraged
far
accountability
election
36
courts
methods
death
disaster
introduced
unfpa
debt
corruption
identify
standard
caribbean
invited
call
responsibilities
encourage
debate
done
associated
ad
similar
chapter
migration
target
welcomes
terrorist
strong
middle
transition
model
budgetary
establishing
trial
continuing
completed
scale
a.m.
conferences
balance
share
defence
follows
goods
positions
whole
67
initial
studies
citizens
physical
relation
recalling
female
—
remained
recovery
efficiency
distribution
o
37
conclusions
applied
close
conventions
return
india
air
events
judges
re@@
counter
adopt
submission
ways
oversight
specialized
destruction
afghanistan
un@@
obligation
products
religious
contract
itself
extent
moreover
language
appreciation
north
appeal
observations
displaced
syrian
cross
agricultural
independence
interests
consultation
today
45
39
concluded
structure
occupied
advice
average
senior
culture
sharing
cuba
supply
68
met
threat
points
sea
him
alia
unido
transparency
applicable
achievement
rather
apply
bring
paper
play
korea
actors
west
illicit
detailed
paid
racial
science
51
agriculture
weapon
workshop
creation
factors
enhanced
temporary
pay
bilateral
create
traditional
islamic
university
difficult
construction
organizational
majority
violation
receive
reflected
38
challenge
across
build
jurisdiction
american
drugs
around
latin
approaches
opinion
directly
100
economies
stability
practical
implications
focused
ethnic
exploitation
units
discussed
41
statistical
once
requires
leadership
just
demand
encourages
island
loss
capacities
takes
english
48
closed
industrial
phase
documentation
regime
determination
raised
subregional
please
formal
suggested
i.
ngos
donors
successful
minimum
brought
france
monitor
whose
sufficient
mexico
outside
conclusion
44
observer
few
seventh
relief
accounts
complete
42
criteria
vienna
owing
beyond
sanctions
raising
launched
1994
leaders
preparatory
consistent
seek
maintain
themselves
stressed
noting
constitutional
parts
instrument
percentage
timely
lebanon
industry
enhancing
alternative
h
settlement
tools
export
reached
commercial
prison
reasons
49
assessments
bureau
improvement
original
islands
decade
46
workshops
illegal
chief
47
compared
australia
iran
43
resulting
either
event
v
net
designed
survey
combating
urges
billion
entry
strengthened
refugee
subprogramme
covered
involving
brazil
serve
clearly
rehabilitation
host
recruitment
accounting
approximately
1990
component
v.
skills
electronic
decides
k@@
recently
electoral
leave
operating
personal
deployment
planned
step
applications
peacebuilding
somalia
records
again
elected
approval
pakistan
contributing
respective
conflicts
donor
vice
french
hoc
cash
ohchr
efficient
committees
western
lower
eighth
ground
aim
created
punishment
registration
civilians
carry
forest
guinea
77
ninth
n@@
northern
germany
ability
asked
generally
inclusion
accordingly
membership
presence
participated
growing
consequences
languages
category
absence
duty
parliament
reduced
payment
ministerial
estimates
69
m
kosovo
stage
real
closely
aircraft
reflect
add.1
1993
reviewed
students
involvement
risks
offences
relationship
ratification
investigations
companies
pre
actively
expertise
ministers
collection
prosecutor
home
insurance
broad
vi
mandates
definition
emphasized
reducing
shared
kuwait
page
design
representation
70
success
cover
represented
intended
short
mass
regulation
base
recognition
thematic
urgent
chairperson
single
markets
sex
responses
chamber
chemical
g@@
highlighted
d.
negative
site
contracts
ended
competition
confidence
outer
fight
difficulties
palestine
coordinated
visit
concept
actual
eastern
deal
urged
contact
face
extended
off
solution
acting
half
medium
advance
attacks
consultative
migrants
specifically
minorities
1991
options
later
in@@
recognizing
defined
useful
s@@
l
observers
undertake
emerging
reach
measure
democracy
your
resulted
ambassador
sierra
freedoms
threats
80
southern
occupation
forced
interim
m@@
along
liberia
solutions
road
secondary
e@@
opening
asian
round
hold
described
immediate
deputy
expenditures
disability
placed
concrete
d@@
crucial
respond
art
types
accepted
guide
multi
published
subsidiary
engaged
outcomes
settlements
series
targets
possibility
times
increasingly
remaining
1992
contributed
mainly
appointment
press
function
leading
cop
type
foundation
participating
money
findings
followed
marriage
re
internet
visits
leone
longer
prosecution
mine
prepare
shown
words
appeals
inclusive
hope
allegations
trends
amendment
assess
platform
collective
9@@
waste
amendments
determine
networks
t
mutual
record
believe
habitat
reintegration
switzerland
coordinator
recorded
welcome
heads
avoid
indonesia
diversity
eliminate
seven
written
complaints
internationally
causes
determined
month
head
eradication
sent
forty
caused
standing
completion
reconciliation
soon
b@@
emphasis
hand
concluding
indicate
empowerment
subsequent
complex
beginning
highest
grounds
marine
down
reproductive
safe
lessons
ireland
statute
speakers
courses
live
fair
oil
p@@
lebanese
funded
constitute
assistant
3@@
perspective
identification
alleged
presentation
origin
globalization
considering
egypt
populations
netherlands
k
learning
likely
added
categories
iaea
complainant
appointed
zone
turkey
considers
come
mainstreaming
availability
i@@
candidates
norway
damage
raise
racism
reforms
guarantee
el
zealand
known
background
imposed
engagement
90
frameworks
rwanda
norms
dealing
a@@
cooperate
convened
lives
campaign
dissemination
significantly
always
darfur
adaptation
observed
institution
separate
nationality
gaza
engage
uses
targeted
functioning
drafting
preventing
regulatory
start
emissions
chemicals
produced
seen
t@@
mortality
cause
integrity
finally
eight
me
listed
côte
find
setting
website
discuss
verification
payments
asylum
express
sought
faced
amended
enterprises
ban
r
gross
authorized
restrictions
ratified
almost
unodc
reservations
pension
4@@
consumption
argentina
subsequently
tool
structures
spain
inspection
requirement
nor
honour
creating
facility
components
transitional
customs
web
internally
organs
h@@
supreme
cedaw
thirty
granted
cyprus
back
sustainability
consent
allowed
figure
minority
victim
tax
sound
biological
ilo
contents
75
respectively
district
spoke
assessed
outstanding
judge
migrant
advancement
supports
00
paras
5@@
maintained
burundi
substantial
departments
investments
company
expression
italy
experiences
al@@
diplomatic
coverage
values
considerable
ethiopia
religion
ict
transnational
registered
indeed
prohibition
decrease
updated
publications
welfare
failure
content
affect
contains
haiti
recognize
test
strongly
colombia
fuel
c.2
cycle
parents
secure
learned
prime
an@@
commissions
vital
city
nigeria
aware
database
allocation
coordinating
interpretation
offer
formulation
territorial
am
y@@
inform
preliminary
'ivoire
disasters
tasks
vehicles
theme
enabling
reason
geographical
enjoyment
diseases
too
credit
equitable
side
selected
pending
amounts
judiciary
teams
sites
namely
sweden
oios
initiated
previously
unless
highly
vii
linked
advocacy
immediately
morocco
fulfil
f@@
fields
dispute
job
transit
sanitation
recognizes
offence
facilitating
incidents
near
nevertheless
x
endorsed
impacts
sustained
2@@
flows
mines
aims
powers
existence
direction
entity
seeking
house
numerous
floor
mind
expenses
topic
extend
principal
ownership
dollars
l@@
enterprise
entered
proportion
losses
tourism
know
week
offered
azerbaijan
holding
comply
kenya
examples
realization
fao
old
socio
prisoners
delivered
worldwide
older
arising
expresses
encouraging
auditors
supplies
penalty
estimate
details
unesco
processing
sovereignty
delay
violated
prices
competent
attended
systematic
improvements
c.3
seminar
move
entire
safeguards
employees
daily
z@@
e.
kind
allocated
instance
protected
73
reviews
u@@
pointed
n
favour
unemployment
release
productive
remedies
obtain
c@@
o@@
uganda
u
identity
users
go
speaking
transparent
containing
sentence
publication
ukraine
works
6@@
subcommittee
substances
designated
discriminatory
accused
binding
places
protecting
primarily
unops
owned
examination
associations
forests
timor
facing
focal
earlier
staffing
otherwise
myanmar
rise
protocols
technological
spanish
eu
limit
identifying
innovative
npt
j@@
constraints
price
solidarity
counsel
72
perpetrators
resident
name
satellite
affecting
factor
chile
preventive
arrest
reiterated
briefing
algeria
stations
10@@
pilot
attend
r@@
preparing
here
de@@
`@@
expansion
exist
impunity
confirmed
ar@@
maintaining
overview
71
achievements
transactions
thailand
left
element
methodology
unable
reconstruction
interested
philippines
rapid
hoped
troop
option
liability
es
heard
read
produce
bosnia
cluster
8@@
parliamentary
regularly
transportation
duties
ldcs
campaigns
gap
army
ministries
prostitution
extension
examined
latter
yugoslavia
obstacles
reservation
grant
failed
bangladesh
coherence
maximum
proper
satisfaction
located
guarantees
show
widely
receiving
w@@
mercury
vulnerability
teachers
charge
austria
gaps
combined
makes
herzegovina
thank
obtained
belarus
outreach
scheduled
expanded
v@@
selection
y
nairobi
maternal
76
disputes
birth
reiterates
controls
whom
differences
...
ill
invites
constructive
74
desertification
worked
woman
arbitrary
wishes
excellency
transmitted
penal
update
trained
pursue
thereby
7@@
nine
names
eritrea
e.g.
managers
conformity
conventional
man
mail
reaffirming
sensitive
represent
jointly
played
disabled
logistics
modalities
mental
mobilization
exports
why
degree
mandated
carrying
figures
georgia
extensive
numbers
radio
seminars
ra@@
resumed
trend
1@@
occurred
believes
la
shows
interventions
monthly
sections
decide
schedule
represents
coordinate
78
vision
witnesses
cn.4
resolve
circulated
malaysia
consequently
specified
etc
examine
congress
unrwa
history
budgets
airspace
corporate
enforced
finland
recalled
ngo
contain
locations
keep
arrested
product
capabilities
never
cities
branch
agree
investigate
c.5
link
detained
peru
imprisonment
gas
refer
dignity
tenth
85
complaint
partner
sri
employed
killed
insufficient
outlined
bill
late
decree
maritime
asset
announced
j
societies
jordan
legitimate
vocational
intention
relevance
roles
segment
co@@
outputs
broader
deliberations
though
nepal
saudi
contingent
programming
covering
little
extreme
98
troops
bearing
began
except
www.un.org
declared
arbitration
charges
95
assisting
links
friday
authors
burden
reasonable
draw
structural
drawn
jobs
launch
wto
legally
adviser
savings
location
79
inventory
acceptance
humanity
c.1
periods
comment
81
monday
traffic
multiple
red
reaffirms
giving
attack
similarly
rape
increases
premises
deployed
expand
attached
er
contracting
disposal
82
0@@
deep
indicates
subjected
finding
limits
turn
sbi
guatemala
released
transferred
83
welcoming
laundering
kyoto
scheme
jerusalem
boys
started
focusing
distributed
accessible
conservation
–
facilitation
dis@@
ch@@
demonstrated
consolidated
intolerance
liaison
topics
rev.1
reaching
spirit
alone
weeks
crc
mitigation
commended
voting
belgium
200
involve
foster
unilateral
nationals
opened
embargo
composition
enjoy
begin
acknowledged
permit
enter
preparations
extradition
financed
lanka
camps
prohibited
largely
procedural
submissions
manage
ever
inadequate
bringing
managed
czech
fisheries
ecuador
male
size
immigration
decolonization
landlocked
barriers
presidential
reflects
sale
biodiversity
projected
explained
remote
envisaged
incorporated
acquisition
letters
vehicle
equity
assigned
posed
grave
relatively
87
iraqi
reaffirmed
innovation
register
cambodia
reply
joined
2.@@
degradation
crises
sponsors
accept
evaluations
utilization
directed
biennial
let
constitutes
99
forums
poland
generation
promoted
hrc
papers
changing
advanced
largest
century
thursday
accession
presidency
manual
keeping
served
fiscal
revision
consultants
turkish
84
inhuman
wider
reserve
supplement
formed
86
degrading
instead
ma@@
roma
di@@
cd
92
widespread
et
stresses
detainees
dealt
ready
regards
assisted
thousands
wished
trading
i.e.
212
banks
conducting
integrate
overcome
substance
nam
competence
households
granting
latest
modern
emphasizes
demobilization
costa
intervention
equally
suffering
sectoral
disease
croatia
hazardous
96
1.@@
coming
intellectual
@
extrabudgetary
balanced
facts
doing
helped
allowance
perform
tuesday
sbsta
wednesday
mdgs
considerations
+
paris
race
look
pressure
mining
en
lines
mother
adjustment
anniversary
uncitral
te@@
dedicated
97
experienced
balances
reportedly
denmark
tribunals
recalls
nlb
serving
demands
liberty
ocean
se@@
adjustments
station
belief
93
valuable
grateful
appear
professionals
ti@@
escap
contrary
is@@
adopting
residence
soldiers
ro@@
transfers
duration
oral
undertaking
si@@
suffered
variety
movements
kazakhstan
invitation
88
influence
version
ombudsman
literacy
unique
aligned
advantage
away
forth
integral
household
replace
commodity
angola
serbia
leaving
supplementary
adequately
notification
grants
sets
deaths
arts
ic@@
became
ghana
91
monetary
unity
academic
senegal
online
venezuela
copies
earth
tanzania
rejected
mid
britain
lawyers
deliver
.@@
gef
intelligence
afghan
oriented
rose
performed
salary
volume
remedy
liabilities
recommend
fixed
map
registry
ammunition
customary
surveys
volunteers
conclude
vacancy
credentials
introduce
mali
palestinians
ad@@
covers
seeks
89
facilitated
viii
harassment
visited
explosive
charged
representing
decline
beijing
returned
defenders
revenue
municipal
94
cruel
run
ts
managing
continuous
severe
add
import
believed
accountable
custody
functional
consolidation
treated
condition
guaranteed
ratify
productivity
doha
1989
gains
operate
chad
gdp
adverse
sometimes
master
fall
rica
zones
withdrawal
tunisia
claimed
xenophobia
armenia
stocks
allegedly
urge
negotiation
search
writing
attempt
warning
becoming
genocide
reviewing
linkages
neither
fccc
1,@@
wastes
wfp
journalists
addendum
determining
nation
ipsas
lost
opposition
le@@
stable
malaria
helping
13@@
award
displacement
claimant
library
successfully
sense
renewable
instances
subparagraph
borders
nearly
village
teaching
res
dependent
citizenship
aviation
18@@
depth
forthcoming
seriously
alternatives
harmonization
flexibility
aged
suggestions
memorandum
'@@
&
en@@
farmers
f.
ate
cooperative
requesting
offers
newly
requiring
convinced
gave
fire
as@@
delays
repatriation
14@@
rome
execution
join
interaction
stages
qualified
program
spread
assessing
amounted
pleased
testing
uruguay
organize
bissau
ethics
wage
rest
judgement
providers
true
engineering
format
reliable
3.@@
commerce
prisons
observation
extremely
cameroon
belonging
fishing
lists
ageing
decades
storage
title
fighting
indicator
devoted
ex
portugal
arabia
1988
demonstrate
explanation
homes
orders
mauritius
usually
lasting
formulated
120
neighbouring
province
pertaining
bolivia
signature
tolerance
er@@
responded
cutting
hunger
environmentally
industries
provincial
behaviour
object
appears
acceptable
coastal
port
hearing
300
negotiating
green
mobile
17@@
firm
filed
denied
currency
transmitting
proceed
juvenile
singapore
des
responding
mo@@
chinese
persistent
qatar
enemy
oecd
963
ab@@
ago
understand
tables
techniques
expressing
track
method
came
mobility
pollution
exception
ta@@
abroad
schemes
hospital
replies
contractual
competitive
issuance
commodities
psychological
accomplishments
im@@
employers
oda
macroeconomic
ideas
jamaica
renewed
explore
supervision
terrorists
dangerous
inputs
inequality
input
l.@@
strength
buildings
objects
to@@
built
rio
corr.1
carbon
briefings
allowing
ing
anticipated
analytical
sign
showed
deeply
administering
declarations
servicing
attributable
romania
lastly
exclusion
nutrition
annually
flexible
z
15@@
refers
properly
viet
ha@@
yemen
reality
libyan
unions
machinery
word
references
larger
violent
seized
advances
mediation
alliance
incurred
fees
mandatory
delegates
stock
compulsory
incorporate
www.@@
limitations
clean
interactive
drew
texts
inquiry
british
conjunction
ed
choice
prosecutors
beneficiaries
software
corresponding
purchase
ri@@
flow
evaluate
coherent
removal
closure
camp
fdi
constituted
loans
heritage
eligible
on@@
composed
agents
adolescents
expanding
guiding
sovereign
it@@
translation
clarification
finds
usd
uzbekistan
applies
separation
relate
speak
entering
ag@@
frequently
everyone
_
patterns
ers
television
mothers
disappearance
leste
counselling
harm
montreal
budgeting
changed
arrangement
1,000
reserves
quarter
reductions
aggression
phenomenon
controlled
accommodation
regardless
man@@
applying
incentives
exploration
burkina
deemed
dimensions
notably
directorate
faso
orally
16@@
via
exposure
friendly
500
h.e.
objection
starting
ac@@
continuation
disaggregated
historical
salvador
zambia
chairs
drought
appointments
speaker
notice
organizing
saint
output
interior
receipt
unifil
say
votes
da
occur
sa@@
bound
incident
transmit
ozone
stress
fraud
oceans
es@@
reflecting
pursued
operative
commit
hungary
felt
kept
relative
distinction
collected
generated
monuc
mongolia
enough
atomic
heavy
pregnancy
150
attendance
define
top
ratio
begun
http
hard
sales
be@@
nepad
guided
expulsion
sect
el@@
sides
nicaragua
colonial
deprived
harmful
disseminate
ap@@
respected
understood
ix
greece
relationships
mar@@
classification
combatants
arabic
dimension
provinces
ceasefire
restricted
la@@
unlawful
ones
targeting
package
equivalent
user
behind
certification
am@@
underlying
so@@
logistical
stand
simply
admissibility
mobilize
at@@
appropriation
journal
remarks
basel
ten
closing
occasion
annexes
none
occupying
missing
chap
ga
me@@
allows
euro@@
characteristics
themes
greatly
unifem
resolved
invasion
maternity
105
chaired
generate
dates
passed
enrolment
command
eradicate
abuses
son
methodologies
character
invite
firearms
strict
2,@@
models
sahara
unmik
bo@@
universities
seekers
underlined
participatory
signing
1986
born
elaboration
th@@
subjects
drawing
difference
rapidly
mutually
lands
comprising
calling
munitions
narcotic
clearance
attempts
strip
detail
devices
continent
tel
businesses
disciplinary
slovenia
news
or@@
prospects
mean
computer
instructions
prevalence
injured
q@@
subregion
millions
ibid
actually
decreased
ending
secured
suppression
liberalization
presentations
unamid
description
meaningful
trials
aspect
insecurity
penalties
hosted
accelerate
emphasize
marked
consumer
disadvantaged
accompanied
fish
102
merits
pregnant
normal
replaced
ar
talks
benin
fulfilment
concepts
submits
league
sentenced
12@@
sc
beings
ia
relates
convening
genuine
introducing
disclosure
clarify
thanks
career
parallel
consistently
complement
greatest
tangible
danger
offenders
monitored
hospitals
finalized
steering
witness
inspectors
1373
regimes
necessity
g.
transmission
preparedness
bear
101
digital
holders
comparison
ation
te
idea
orientation
breach
ecosystem
destroyed
brief
sixtieth
meaning
exists
suitable
administered
diverse
cn.9
proceeds
consists
capability
complementary
systematically
villages
emergencies
addresses
want
competitiveness
moving
headed
twentieth
tajikistan
faith
comparative
harmonized
sponsored
restructuring
contacts
110
0.@@
hence
stabilization
2nd
message
103
integrating
occupational
enhancement
transaction
intensify
going
mu@@
telephone
derived
reinforce
q
ating
conducive
definitions
attitudes
eliminating
citizen
accessibility
reimbursement
formulate
unmil
gives
zimbabwe
acquired
stop
salaries
recruited
accurate
convicted
driven
compilation
organic
w
credibility
plant
replacement
inter@@
20@@
residents
reiterate
mostly
shelter
manufacturing
index
enshrined
111
indian
su@@
focuses
emphasizing
adults
stronger
sh@@
questionnaire
surveillance
1990s
valid
pattern
favourable
insolvency
regrets
ya
progressive
synergies
saharan
durban
root
arise
firms
permitted
census
deadline
minutes
amend
depend
cultures
1st
closer
5.@@
104
mozambique
referendum
delivering
whereas
eleventh
consequence
administrator
marginalized
slovakia
rapporteurs
vis
thereto
sub@@
montenegro
decent
dp
imperative
depending
ecosystems
perspectives
advisers
truth
subsidies
electricity
town
concerted
spent
collaborative
ting
calendar
benefited
conviction
outline
contractors
handling
ahead
capable
ordinary
minors
29@@
mention
gain
intensive
sports
he@@
excluded
telecommunications
unoci
globally
prosecute
front
obtaining
112
prejudice
collect
producing
mainstream
freely
san
panama
assumed
facto
durable
sentences
sufficiently
looking
undermine
regarded
non@@
bulgaria
elderly
reaffirm
approve
lawyer
presidents
fill
involves
expectations
curricula
credible
german
ic
unccd
108
assurances
slavery
mitigate
excessive
distr
exchanges
explain
center
programs
municipalities
transboundary
contractor
budgeted
suspected
accounted
indicating
possession
associate
retained
laid
ak@@
smuggling
formation
opinions
commonwealth
stakeholder
makers
tu@@
explicitly
workplace
curriculum
ted
occasions
106
stressing
enabled
secretarygeneral
fissile
engaging
things
submitting
3,@@
inside
coalition
au
le
authorization
prevented
percent
twelfth
imf
adult
proved
1987
minor
1985
libya
immunity
107
livelihoods
redress
fostering
copy
po@@
maintains
drafted
necessarily
moldova
quick
rising
fear
retirement
deprivation
referring
double
greenhouse
over@@
highlight
auspices
presents
thereon
manufacture
interference
propose
likewise
ensured
establishes
pledges
gs
therein
weak
stockholm
namibia
translated
da@@
length
un.org
notwithstanding
moral
husband
tons
duplication
normally
inflation
workload
discharge
normative
consolidate
forestry
intends
mis@@
ma
>
113
suppliers
pose
250
inhabitants
delayed
species
termination
se
114
assurance
albania
asean
abortion
cut
09
certificate
injury
lo@@
analyse
wages
exceptional
a.@@
vi@@
malta
115
stereotypes
shift
remuneration
ta
refused
killing
consult
remove
car@@
drinking
unfortunately
suggest
tackle
generations
features
demographic
frame
street
restoration
preserve
transformation
contemporary
dynamic
li@@
lithuania
generating
130
willingness
1967
corporations
cuban
imports
threatened
initiate
prompt
continuity
suffer
116
jiu
seats
slow
baseline
109
ge@@
banking
momentum
substantially
emission
jamahiriya
appreciated
soil
organ
indirect
4.@@
redeployment
girl
con@@
dominican
significance
carefully
emirates
suspended
prohibit
ai
formally
readiness
1980
removed
train
op@@
bu@@
tried
geographic
contributes
wall
disappearances
thereof
honduras
ter
ali
wishing
observance
profile
permits
coordinators
severely
inadmissible
heading
incidence
limitation
ka
hague
envoy
looked
1982
declined
400
get
send
ultimately
gained
enacted
seems
employer
pace
eca
strictly
122
airport
pro
appeared
<
cat
do@@
ir@@
sport
additionally
paraguay
pa@@
chain
kyrgyzstan
healthy
bahrain
ol@@
prevailing
somali
districts
investigated
registrar
hostilities
urgently
promptly
subsistence
peer
st@@
tensions
negotiated
updating
niger
poorest
pillars
initially
118
servants
nothing
codes
impose
houses
executions
4,@@
ra
inequalities
monterrey
advancing
togo
suspension
analyses
viable
impartial
cited
spending
retain
unitar
il@@
fiji
consistency
quickly
offset
entrusted
hear
suggests
assume
go@@
urgency
ru@@
boards
os@@
117
stay
absolute
comprises
promotes
hall
ko@@
enforce
foundations
detection
extraordinary
endeavour
decentralization
inf
summarized
upgrading
adjusted
1.2
complexity
abstentions
potentially
=
feedback
heavily
ba@@
doubt
awards
osce
conversion
fax
firmly
mm
consisting
affordable
abolition
organisations
kuwaiti
syria
went
defining
djibouti
awarded
macedonia
adherence
constant
thirteenth
xi
acquire
vacancies
meant
repeated
ne@@
descent
ece
tracking
feasible
safeguard
accord
ur@@
highlights
class
depends
choose
directors
ecowas
assignment
capita
file
08
merely
x@@
considerably
unpaid
profit
pornography
path
05
canadian
encountered
whereby
pursuing
serves
solid
vast
perhaps
nongovernmental
thought
ships
samoa
congolese
sa
minimize
rich
elsewhere
verbale
commander
01
ec@@
nonetheless
survival
guideline
punish
luxembourg
characterized
undcp
realize
channels
voice
pages
documented
confidential
injuries
mrs.
escwa
publicly
australian
refrain
gh@@
ce@@
simple
corrections
exposed
119
bar@@
networking
appoint
cabinet
bi@@
pre@@
add.2
ci@@
commentary
gratitude
convene
impossible
underscored
think
exceed
moved
tests
proof
benchmarks
formulating
utilized
missile
mon@@
combination
policymakers
launching
existed
malawi
5,@@
possibilities
clients
struggle
lu@@
preservation
unmis
worth
friends
hands
stipulated
river
chambers
arbitral
overseas
lao
retention
ship
securing
ated
separately
discipline
circled
square
exclusively
audits
suggestion
architecture
whenever
infant
councils
radiation
turkmenistan
19@@
no@@
producers
unemployed
emerged
rely
wealth
smes
predictable
gathering
regulated
attorney
acknowledging
motion
desire
acknowledges
fulfilling
botswana
flight
recall
1.15
ranging
revenues
undertook
2.1
wife
video
releases
mobilizing
sum
contingency
reinforcing
thanked
connected
recipient
allocations
0
td
aliens
leader
rendered
ho@@
ages
121
bis
satisfactory
kg
bangkok
offering
quite
latvia
realized
legitimacy
debates
tenure
liechtenstein
duly
databases
repeatedly
ensures
difficulty
pledged
grade
corporation
instability
piracy
resilience
ps
economically
easily
statutory
completely
justified
revitalization
3rd
greek
140
responsive
dollar
sustain
divisions
du@@
27@@
30@@
russia
summits
fired
investors
hu@@
maldives
600
minustah
kilometres
dual
admission
thorough
jurisprudence
recurrent
religions
corporal
indication
hong
births
accreditation
1.1
killings
1981
practitioners
2.5
learn
investigative
liberation
atmosphere
hopes
obliged
125
accorded
interviews
partially
divided
intersessional
h.
miscellaneous
prosperity
married
opposed
mal@@
123
applicant
rental
valuation
allowances
fell
mediterranean
golan
100,000
st
inalienable
employee
commends
attributed
ul@@
phases
os
ki
allocate
indispensable
candidate
genital
yugoslav
solely
payable
advocate
06
claimants
willing
evident
ratifying
ah
pro@@
subcommission
2.2
governed
inspections
father
malnutrition
measurement
unaids
6.@@
partial
estonia
p.@@
patients
radioactive
seem
elaborated
resolving
taliban
diversification
ordered
quantity
autonomy
resettlement
organisation
roads
countering
revealed
investigating
mutilation
robust
viewed
entrepreneurship
ec
124
amisom
calculated
vessels
weekly
add.@@
exercises
partly
examining
disseminated
condemned
pursuit
barbados
unacceptable
reading
advantages
fewer
historic
affects
holistic
epidemic
waters
restore
comparable
hi@@
college
zero
bolivarian
cdm
debris
outset
parameters
1.5
placement
appendix
pe@@
environments
causing
madagascar
tokelau
operated
km
extending
evolving
jurisdictions
utmost
regulate
plants
marketing
client
na@@
unfccc
auditor
ations
pupils
morning
kong
seas
damages
1540
frequent
smaller
appraisal
disparities
elaborate
qu@@
briefed
compromise
easy
proceeding
nominated
perceived
.1
justification
plus
ou@@
qualifications
2017
clarified
wa@@
performing
excellent
supportive
modified
feasibility
acceded
executed
workforce
becomes
cypriot
appreciate
appealed
withdrawn
6,@@
weight
distinct
uniform
instruction
exceptions
missiles
wording
reconnaissance
exclusive
surface
ay@@
07
clause
try
thirds
guyana
destination
134
receivable
é
adapt
mixed
argued
acknowledge
portfolio
buyer
inherent
withdraw
commenced
2016
murder
nationally
hearings
153
parental
landmines
chosen
concludes
amounting
obstacle
listing
pool
communicated
eclac
swiss
subtotal
recosting
programmatic
attract
childhood
impartiality
excess
hour
london
5,000
unprecedented
measured
1978
classified
sole
stipulates
loan
showing
write
interpreted
stood
instalment
surplus
assure
aspirations
cultivation
gu@@
mauritania
sphere
academy
138
der
correct
challenging
1984
patrol
civilizations
iceland
king
aforementioned
160
prescribed
muslim
155
realities
incorporating
tuberculosis
secondly
prove
com@@
confirm
proactive
28@@
tes
preceding
ans
cape
exercised
korean
proposes
locally
appropriations
mi@@
extrajudicial
evaluating
ccw
frequency
128
portion
2,000
desirable
taxes
4th
arrived
wp.@@
entirely
3.1
haitian
prosecuted
irrespective
privacy
unu
lies
autonomous
spare
roster
separated
participant
-@@
ruling
resort
kindly
sponsoring
settings
explosives
explicit
2020
privileges
ceb
deferred
euro
prohibits
126
stands
standardized
per@@
borne
expendable
sciences
rc
manifestations
specialists
ask
survivors
equipped
hosting
lakes
returns
reparation
thereafter
pensions
2.3
comprise
crops
putting
confidentiality
brussels
ordinance
assumption
screening
intensified
incorporation
gradually
c.4
diamonds
congratulate
breakdown
sp@@
parent
compact
ver@@
saw
panels
fifteenth
cell
plays
certainly
sha@@
prohibiting
lay
managerial
maximize
measuring
proven
spouses
collecting
twice
secretariats
evolution
observe
trinidad
enormous
ca@@
af@@
intimidation
certificates
reminded
par@@
box
acute
beneficial
describe
speech
ol
bhutan
ha
op
narcotics
.2
timetable
declare
evaluated
reliance
misconduct
xii
truly
females
gm
visiting
continental
bar
workplan
medicines
unified
denial
129
cerd
800
accidents
communicate
succession
spite
cancer
adolescent
ds
135
ana
cargo
180
realistic
132
deterioration
falling
.4
efficiently
answer
tobago
ba
fragile
governor
parliamentarians
universality
c.6
uncdf
1973
volunteer
4.1
updates
manager
gabon
structured
immunities
excluding
interdependence
appropriately
traditions
vol
attending
ke@@
23@@
originally
alleviation
ties
navigation
3.2
pillar
policymaking
assumptions
weather
m.
02
guam
marriages
paying
subprogrammes
returning
7,@@
preambular
fine
6th
id@@
ates
inventories
ant
sal@@
attempted
imposition
sessional
di
skilled
witnessed
ultimate
died
returnees
iranian
leads
min@@
massive
specify
7.@@
consulted
repair
sized
militia
johannesburg
han@@
133
verify
powerful
advise
meanwhile
moment
introductory
surrounding
popular
essentially
1983
hundreds
shares
san@@
royal
apart
justify
precise
advised
era
acted
processed
resume
icrc
bl@@
looks
washington
addis
feature
protective
analysed
deleted
picture
sr.@@
expedite
identical
broadly
speed
testimony
professor
tend
phrase
laboratory
earmarked
shelters
microfinance
ababa
apparent
attainment
enjoyed
cooperating
guaranteeing
officially
j.
livelihood
puerto
uncertainty
182
student
ethical
heart
imo
cst
1979
variance
comes
methodological
atlantic
projections
residual
cor@@
messages
concentrated
medicine
nineteenth
yes
ve@@
strike
continuously
shortcomings
resumption
cl@@
accelerated
trying
commencement
accede
131
cessation
patrols
toxic
designate
holy
revisions
vary
127
fertility
ni@@
5th
ballot
2.4
boundary
institutes
mark
ber@@
grow
notion
eventually
quarterly
8,@@
qaida
relatives
exercising
weaknesses
reinforced
4.2
illiteracy
branches
departure
ms
validity
bonn
satisfied
contrast
resistance
cmp
undaf
fiftieth
s.@@
upcoming
guilty
pops
teacher
refusal
linking
archives
indicative
adversely
deals
ren@@
é@@
expressly
foreigners
nominations
cease
drop
signs
utilize
distinguished
elect
alternate
books
told
moratorium
141
clarity
founded
sexually
book
wrongful
dr.
politics
revise
bridge
ac
woods
enactment
em@@
demining
meets
objections
sensing
136
sudanese
handed
bases
prosecutions
fa@@
forensic
arguments
immigrants
endorses
wa
confirmation
169
3,000
crossing
rotterdam
negotiate
relocation
consumers
adapted
scientists
genetic
licensing
1,0@@
consist
ine
sixteenth
cooperatives
commend
empower
1949
casualties
chronic
hr
gathered
modules
lesotho
certified
ir
distance
sir
concentration
himself
underlines
hatred
incompatible
disseminating
consultant
interregional
towns
secret
shortly
caricom
shipping
arrival
assault
handbook
alien
developmental
dismissed
har@@
presenting
accommodate
spouse
night
3.3
peacekeepers
divorce
ke
tonnes
regulating
ous
recording
communiqué
incitement
slightly
apportionment
typically
à
stockpiling
break
affirmed
unficyp
satellites
orbit
contributors
accredited
classes
pertinent
bretton
papua
module
ca
endeavours
whatever
mat@@
traditionally
properties
argument
turning
reproduced
pressing
pollutants
umoja
fourteenth
decentralized
embassy
supervisory
chairpersons
142
careful
contexts
possibly
threshold
gibraltar
visa
10,000
multilateralism
162
render
violate
innocent
cric
assured
gambia
counterparts
micro
motivated
ga@@
liberian
shipment
9.@@
residential
03
worst
fulfilled
ku@@
04
chairmanship
kinds
esa
tariff
audited
guard
punishable
ac.109
tension
fi@@
confiscation
mindful
fail
700
lowest
entrepreneurs
eligibility
ivorian
systemic
herewith
baghdad
recourse
filled
1.3
11@@
pv.@@
us@@
235
seller
warrant
seventeenth
experiencing
remittances
mb@@
defend
holds
tribute
il
harmony
invest
ter@@
seemed
linguistic
discussing
uphold
placing
mapping
fe@@
demonstration
collectively
ex@@
parliaments
installation
tested
methyl
urbanization
143
prolonged
posted
desk
harmonize
gulf
worker
deficit
specialist
invoked
contingents
amnesty
bahamas
trainers
metres
perpetrated
grown
madrid
wing
permission
socially
lived
endorsement
limiting
mogadishu
out@@
voted
explored
argues
roll
discretion
stateless
strive
goes
blue
annexed
analysing
fit
codification
quota
admitted
damaged
licence
directive
clearing
anyone
aboriginal
139
137
renewal
scenario
ch
interpretative
avoiding
unknown
examinations
spheres
wherever
144
remnants
socioeconomic
irregular
reflection
st.
operators
designing
investing
accomplishment
mdg
conf.@@
creditors
highlighting
ports
designation
receives
monitors
fellowship
restrictive
seabed
1975
imis
amending
9,@@
qualitative
interpol
debtor
deposited
arrears
clinics
ko
alignment
incumbent
regret
,0@@
commence
liquidation
attain
000
minurso
simultaneously
comprised
146
judgements
diamond
unv
centred
feel
aside
broadcasting
inconsistent
145
check
tobacco
americas
ov
hazards
liable
realizing
racist
id
reverse
cisg
1970
promulgated
jo@@
ctbt
freeze
copenhagen
independently
mountain
exemptions
exhausted
confident
deficiencies
infection
151
operates
xv
itc
entail
quantities
signatories
pretrial
indiscriminate
entitlements
eighteenth
swedish
147
251
156
installations
unama
indirectly
rotation
helps
owners
istanbul
wondered
wood
oman
coast
periodically
punished
men@@
mor@@
exceeded
exemption
fee
portal
stating
40@@
enquiry
9th
hazard
notified
false
ss
draws
overdue
rations
oau
platforms
consulting
uk
chapters
persistence
crop
7th
economics
farming
166
prerequisite
consolidating
mi
church
choices
valued
expect
enables
nato
neutral
assistants
save
24@@
commented
gi@@
supplied
uranium
5.1
intent
authorize
accident
varied
um
nomination
humankind
standardization
facilitator
danish
affirmative
sta@@
lacking
quantitative
defines
communicable
kh@@
referral
for@@
ambitious
announcement
creditor
unanimously
disclosed
pass
politically
questioned
roots
5.2
japanese
applicants
restrict
diplomacy
demonstrations
val@@
rwandan
undof
marital
vacant
county
segments
fast
.org
mere
1974
threaten
arrests
hotel
finalize
attacked
25@@
decisive
154
phased
italian
nationwide
ly
can@@
deportation
ecological
agendas
saving
na
executives
gold
chargé
admissible
intercultural
verde
visible
awaiting
vendors
earnings
settled
her@@
substitute
cu@@
8th
ment
marginalization
idps
doctors
abolished
abu
deposits
profits
abyei
attaches
solar
civic
icc
males
agrees
1971
ina
equatorial
4,000
monaco
chairmen
tackling
conceptual
respecting
streamlining
mercenaries
align
playing
ordnance
restitution
declining
1961
gradual
completing
establishments
mer@@
overarching
delete
sponsor
creative
parity
preference
ph@@
black
neighbours
respondents
white
3.5
we@@
undg
issuing
convey
158
monusco
timing
running
schooling
delegate
152
receivables
infections
visibility
fate
compatible
inception
explanations
aiming
a.i.
conciliation
accessing
sustainment
undermined
'affaires
xiii
modernization
recipients
smooth
symposium
expects
describes
1977
complemented
161
157
preferred
unnecessary
steady
constantly
50@@
virgin
corrected
isolation
obvious
adding
shortage
attitude
suspects
res@@
falls
colleagues
credits
desired
ban@@
postponed
emergence
ourselves
car
ding
directives
sure
possess
upper
empowered
dependence
exclude
6,000
trans@@
hardship
awg
ge
exploring
adhere
earthquake
stockpiles
alleviate
childcare
expense
149
1.4
profound
du
furniture
faces
exceeding
violating
degrees
4.3
4.5
marking
entitlement
inability
virtue
publish
8.@@
files
brings
tsunami
148
multinational
inspector
taxation
criterion
pan@@
ters
fardc
az@@
sadc
diversion
applicability
extra
cancellation
identifies
helpful
capture
appreciates
tribal
labor
positively
trafficked
finalization
individually
incomes
e.@@
collaborate
unmee
fo@@
dropped
ab
caledonia
pandemic
accelerating
deploy
contaminated
poses
om@@
oic
agent
afford
shelf
chains
deposit
cairo
proceeded
competencies
cs
visitors
flights
legality
if@@
commonly
mg
infected
computers
za
upgrade
coercive
26@@
prominent
divide
ig@@
totalling
broadcast
brazilian
investigators
imply
l.1
versions
ka@@
reserved
sch@@
170
beliefs
expectancy
accuracy
replied
adjournment
portuguese
sincere
208
cal@@
ja
virtually
sample
probably
beirut
tions
restriction
websites
approves
calculation
stimulate
overcoming
wanted
159
mankind
drivers
magnitude
judgment
rooms
bin
terminology
suicide
breaches
filing
flag
commensurate
bi
benefiting
voluntarily
ies
oc@@
kivu
translate
eliminated
coordinates
1976
channel
connectivity
boundaries
policing
wounded
226
researchers
lending
900
cold
mohamed
deliberate
unliquidated
bali
huge
l.
disappeared
ghg
vendor
readily
ethnicity
notify
unamsil
defense
routes
print
solomon
legislature
eradicating
committing
unlikely
insert
tor@@
moscow
livestock
telecommunication
reiterating
shocks
renew
perception
streamline
unami
helicopters
installed
accomplished
safeguarding
evacuation
occurring
venue
200@@
negatively
165
depleting
167
barrier
image
220
prioritize
c.12
vulnerabilities
preserving
201
route
k.
challenged
wi@@
ethiopian
devastating
bulletin
paramount
privatization
2.30
recycling
accrued
idf
ati@@
diligence
suriname
implies
2.6
usefulness
under@@
bur@@
scourge
th
driving
multidisciplinary
seat
pr@@
beneficiary
immunization
ari@@
complainants
rebel
avoided
belize
aggregate
panellists
compiled
comoros
nonproliferation
islam
ri
carrier
ti
occurs
automatically
sin@@
industrialized
dry
s.
earliest
ves
commissioners
illness
tar@@
symbol
demonstrates
dangers
freight
upr
arrange
seizures
regretted
treat
c.@@
settlers
fs
clusters
gen@@
pa
abduction
rico
neglect
formula
publishing
ji
cohesion
tortured
ii.@@
synthesis
cumulative
seizure
reclassification
5.3
iom
generic
respects
grand
advocated
tailored
facilitates
segregation
lucia
6.1
creates
currencies
notable
packages
moon
signatures
securities
directions
33@@
opium
cis
consular
ling
exacerbated
1972
bromide
gases
condemns
blood
profession
ifad
va
expeditiously
norwegian
lan@@
fmct
printing
bal@@
imported
circulation
hundred
ed@@
kimberley
merit
ctc
christian
clauses
aftermath
cards
pour
av@@
12.@@
deforestation
vanuatu
synergy
euros
impetus
3.4
164
allegation
empowering
preamble
163
annotations
add.3
eritrean
solve
prst
thinking
electrical
affirms
van
georgian
depositary
outlines
easier
210
signatory
ud@@
john
inheritance
intend
hampered
iz@@
mas@@
drive
annan
afternoon
treasury
taiwan
convictions
d.@@
defendant
211
maps
ecosoc
farm
sending
hygiene
isolated
modest
notifications
incentive
00@@
dynamics
remind
tradition
unmit
illegally
linkage
suppress
ism
narrow
cannabis
recovered
assignments
besides
persecution
halt
foreseen
steadily
sustaining
1969
mobilized
hit
ity
universally
usage
enrolled
ass@@
scenarios
cycles
handled
modification
profiles
militias
cope
tuvalu
controlling
bel@@
jean
recover
norm
verified
settle
nu@@
misuse
seychelles
automatic
owed
conscience
interview
inquiries
advocates
lease
der@@
sold
succeed
the@@
36@@
rocket
inmates
192
acquiring
naqurah
dec@@
factual
cc
mineral
60@@
tripartite
rationale
lin@@
227
modifications
deadlines
1.6
actuarial
ton
concentrations
timber
correspondence
exporting
sub.2
sensitization
instrumental
countermeasures
unmiss
criminalization
detect
protracted
participates
estate
lacked
unencumbered
iccd
varying
threatening
ja@@
auditing
ons
acc
escalation
1980s
forwarded
reliability
trustees
0.7
summaries
endorse
measurable
licences
172
213
175
successes
interrelated
instituted
grass
utility
select
270
ten@@
unlb
audio
entails
favoured
kar@@
visual
bottom
studied
gather
multidimensional
fresh
meantime
petroleum
dialogues
hostile
1951
proposing
qualification
invested
au@@
supplier
pressures
sen
ing@@
sar@@
kp
removing
seventy
perpetrator
complementarity
prohibitions
bulk
248
backlog
tri@@
albanian
lawful
josé
sp
gra@@
progressively
doctrine
unchanged
unclear
terror
requisite
scholarships
ju@@
38@@
i.@@
cells
li
impede
layer
37@@
volatile
174
tr@@
innovations
pl@@
temporarily
pesticides
ye@@
swaziland
multisectoral
rejection
passport
reaction
fl@@
watch
6.2
announcements
oversee
interviewed
amongst
erp
ally
2.45
turned
successive
alongside
semi
volatility
48@@
magistrates
ak
substantiated
toward
als
173
mitigating
interpreters
pledge
ist
57@@
disengagement
planet
189
tic
atlas
administrations
pu@@
ben@@
contracted
unaccompanied
benchmark
brindisi
conscious
residing
satisfy
34@@
optimal
doctor
chance
laboratories
fuels
ascertain
broaden
ani
outlook
consisted
recruit
upheld
tragic
informing
icts
activists
verbatim
complied
checks
preferential
coupled
passage
corrigendum
redeployed
pact
logical
naval
revolution
provider
senate
ger@@
tracing
falkland
abolish
colonialism
bio@@
50,000
183
fu@@
imposing
tra@@
tion
les
thousand
adds
ratifications
168
inappropriate
39@@
selective
10th
libraries
everything
contamination
renovation
departmental
tan@@
voters
blockade
trusteeship
scaling
rescue
multi@@
iv@@
clothing
machine
171
suspicious
icsc
plurinational
antigua
indebted
rent
column
1960
interface
ded
5.5
financially
supplemented
tertiary
predecessor
leg
2.7
afforded
gone
abducted
4.4
ve
circulate
dag
fairly
observes
cleaner
lra
metal
memory
1325
carries
vincent
promising
summer
succeeded
executing
legacy
co2
fairness
helicopter
vo@@
utilizing
vessel
disproportionate
enact
accompanying
meteorological
191
den@@
attaining
asserted
orphans
kofi
xiv
biotechnology
democratization
hal@@
ldc
micro@@
sick
ranking
shortfall
mode
quotas
sur@@
je@@
ignored
b.@@
usual
ang
tokyo
formerly
domain
municipality
undermining
somewhat
od@@
predictability
ipcc
briefly
del
remainder
argentine
khartoum
iccpr
extremism
kinshasa
microcredit
configuration
190
samples
abide
ahmed
deny
traffickers
occurrence
confined
cooperated
successor
10,@@
broken
ease
20,000
purchasing
sk@@
earned
spectrum
icef
181
gaining
enacting
suspend
177
reunification
ob@@
illustrated
tendency
constituent
floods
encouragement
ff@@
gar@@
ings
242
guards
slum
count
chart
fallen
yield
academia
240
egyptian
cr@@
ary
1,4@@
ian
complicated
1.7
images
185
attach
et@@
cp
incomplete
handle
block
involuntary
rarely
payroll
202
ven@@
ong
usa
nets
apparently
midterm
unequal
discriminate
6.5
something
ists
dependency
triennial
named
triangular
modify
precisely
raises
icao
promise
failing
218
lie
almaty
excellence
p.
junior
cuts
230
ze@@
arsenals
reparations
186
undue
enrichment
controller
1,7@@
constructed
fluctuations
compliant
boost
unsustainable
restored
l.2
ombudsperson
defer
rice
brunei
ah@@
dismissal
jan
noon
ard
risen
jewish
attained
col@@
1963
indications
accra
sponsorship
abandoned
commanders
undertakings
184
owner
unomig
bra@@
exit
1.8
ensuing
govern
178
clashes
won
raw
ator
statelessness
tentative
214
ste@@
minimal
textbooks
overcrowding
interesting
206
arranged
foremost
hammarskjöld
ite
schedules
educate
timeliness
233
ser@@
literature
barbuda
players
devote
176
affiliated
ballistic
quadrennial
58@@
belong
pol@@
disproportionately
itu
shape
consortium
farms
0,000
1,500
overwhelming
purchased
observing
win
lodged
unauthorized
demonstrating
terminated
shipments
importantly
bills
unfair
doubts
hipc
fashion
driver
condemn
alike
faster
feeding
visas
armaments
adjust
tropical
psychosocial
belgrade
detected
intermediate
ki@@
abidjan
routine
freezing
68@@
compound
cb
totally
costly
war@@
webcast
ai@@
225
answers
arusha
trans
simplified
restraint
pc
kabul
peninsula
187
device
secretaries
reception
decreasing
infrastructures
openness
disclose
exploited
contributor
regrettable
faculty
sensitivity
soviet
deciding
veto
disposition
refuse
erosion
arose
ends
ors
commissioned
persist
acceding
tank
ses
imbalances
differ
checkpoints
psychotropic
confinement
extraterritorial
59@@
thoroughly
attempting
claiming
consecutive
aquifer
card
6.3
assuming
foregoing
geared
destroy
muslims
1,8@@
alarming
unlike
ance
differentiated
gc
metals
voter
unexploded
ip@@
ent
dumping
prevail
safer
tonga
extends
concentrate
350
alcohol
moroccan
serbian
healthcare
260
abortions
reforming
5.4
tasked
dead
grenadines
fleet
procuring
beaten
203
joining
colour
holder
209
188
waiting
grew
undoubtedly
uni@@
bureaux
207
differential
est
embodied
conditional
unita
vested
animal
lose
adopts
coexistence
industrialization
printed
litem
recruiting
generators
film
thirdly
streamlined
inviting
feed
toxicity
mad@@
ictr
saying
lengthy
prince
cocaine
lifting
depended
interdependent
inserted
cap
grenada
222
rs
7.5
studying
unmovic
reject
conform
impediments
compounds
anti@@
founding
fruitful
interactions
converted
ceased
deteriorating
presently
deputies
ry
49@@
big
cn@@
dramatic
ham@@
ized
ators
193
sharp
47@@
up@@
customer
2.8
viability
69@@
precursors
hate
11.@@
exact
solving
dominated
demarcation
holdings
indonesian
native
179
borrowing
243
remarkable
ratios
shells
influenced
ccpr
isu
accepts
accumulation
attracting
228
fortieth
cornerstone
pal@@
spring
nap
encompass
4.6
mexican
assists
á@@
194
totalled
manuals
tanks
restoring
phenomena
warplanes
employ
ottawa
266
error
rooted
offshore
determines
aires
presiding
really
collaborating
marshall
ks
brother
sexes
spatial
presumption
x.
competing
juveniles
agro
questionnaires
ac.@@
reasonably
validation
fighters
delegated
confiscated
colombian
shot
preferences
offensive
thirtieth
emanating
ne
ica
consultancy
intervene
uneven
overlap
centralized
241
tariffs
offender
virtual
therapy
0.5
ev@@
nutritional
extremist
darussalam
199@@
malvinas
end@@
leverage
extensively
sahel
arises
ods
finalizing
instraw
ruled
matrix
ceremony
ran@@
269
0,@@
trips
banning
filling
fin@@
stories
yearly
verifiable
remedial
harmonizing
detrimental
d.c.
edition
reads
204
relied
impeding
convergence
criminals
wars
ale
bas@@
rigorous
53@@
catholic
plight
theft
centers
occupations
arctic
ambassadors
confront
defendants
correctional
unsoa
manufactured
insofar
wipo
nauru
arrive
stockpile
reveal
scarce
stopped
237
virus
gravity
lot
aggravated
escape
minurcat
speedy
rounds
hostage
sheet
216
accessed
statutes
elementary
hinder
patient
cas@@
protest
artillery
10.@@
bermuda
hiring
flying
ib@@
varies
minute
psychiatric
3.6
shortages
precarious
sao
ce
infectious
approached
215
strengths
evolved
underlining
marks
confirms
dakar
volumes
concessions
accumulated
eventual
governors
socialist
evictions
pregnancies
documentary
irrigation
ara
eminent
generous
bs
importing
tremendous
ash@@
communal
crescent
scales
groupings
replacing
195
compile
pi@@
ze
kidnapping
221
205
quartet
liquidity
276
cc@@
70@@
immigrant
petition
accepting
ation@@
regrettably
isaf
universalization
andorra
facilitators
exported
compensate
og@@
mur@@
demanded
enforcing
comprehensively
ble
ceiling
urging
donations
passing
geospatial
utilities
exhaustive
initiation
phone
í@@
specially
prioritized
physically
conducts
abused
proclaimed
ner
ali@@
7.1
217
ins
captured
burdens
ff
cn.7
childbirth
marino
skill
timorese
1.
audience
getting
scrutiny
ality
kfor
voices
austrian
rests
pan
adequacy
stigma
mohammed
dutch
ineffective
perceptions
pharmaceutical
contraceptive
4.7
ep@@
underline
197
incremental
serb
fails
wo@@
13,@@
educated
commemoration
14,@@
park
wmo
ap
expensive
1,5@@
freshwater
fa
pleasure
protests
reorganization
cleared
minerals
narrative
defamation
debts
accurately
cn.15
chiefs
253
yo@@
bribery
criminalize
season
ur
retaining
compensable
seriousness
forecast
kits
adi
southeast
exhaustion
contends
ida
hr@@
attainable
ics
transferring
banned
armoured
r.
railway
initiating
quarters
compounded
unidir
dedication
265
distinguish
ira
emerge
gis
travelling
morbidity
dominant
younger
500,000
yesterday
petitioner
goma
ratione
spt
expelled
newspapers
tur@@
lectures
whereabouts
irreversible
12,@@
67@@
bonds
dpko
adjacent
variations
ac.105
heroin
8,000
passengers
embarked
horizontal
palau
ran
msp
alization
strikes
repairs
21st
observatory
brokering
frozen
fragmentation
ang@@
eco
16,@@
tive
globe
window
ea
intra
advertising
bombs
si
supporters
scene
spaces
sell
evidenced
air@@
sentencing
motions
dramatically
containers
cancelled
hybrid
indictment
inflows
atmospheric
temperature
1,9@@
ari
audiovisual
subparagraphs
alleges
problematic
explains
breaking
1.9
aa
migratory
rec@@
discovered
publicity
supplementing
clearer
compatibility
1,6@@
unresolved
constituting
mop
ment@@
1,3@@
dec.@@
ranks
personally
airports
organised
delimitation
transform
aerial
°
outsourcing
ts@@
purely
expeditious
societal
travelled
flagrant
guides
advocating
lift
stolen
atrocities
br@@
antiretroviral
ach@@
corps
ments
armenian
dose
tended
7,000
ipu
7.2
prosecuting
expressions
refoulement
4.30
244
confrontation
confederation
alliances
milestone
clarifying
icpd
outbreak
elaborating
clarifications
far@@
intensity
aw@@
interpretations
investor
srpska
264
likelihood
ata
1948
v.@@
connections
protects
mal
failures
247
•
exporters
223
arabs
15,@@
che@@
affirming
ore
sis
mix
mus@@
unconditional
kan@@
encumbered
255
236
6.4
mil@@
pfos
silence
imbalance
venture
customers
custodial
sar
combine
micronesia
club
undertakes
asserts
coercion
dan@@
escorted
afro
200,000
underrepresented
umbrella
mar
helena
196
oas
employing
coe
polymetallic
republika
classifications
ler
allocating
ie
constructively
twelve
confronting
ada
forming
peter
brackets
credited
ji@@
spiritual
precedent
198
ade
1966
condemnation
widening
ice
administer
palais
2,0@@
criticism
crp.1
cypriots
ideal
technically
sheets
258
invoke
mel@@
olympic
prevalent
231
withdrew
pesticide
2,500
culturally
din@@
litres
interrogation
demanding
ish@@
selecting
albeit
199
runs
all@@
lacks
struck
201@@
pat@@
2.9
acclamation
gro@@
cayman
subnational
intense
xvi
discriminated
curb
slave
specifications
montserrat
formats
worse
assemblies
neutrality
cap@@
polish
224
obviously
confronted
exploit
10.30
17,@@
246
deepening
rebuilding
reprisals
anguilla
1701
breastfeeding
pledging
sam@@
ye
ala
rating
imprisoned
upholding
dpi
enriched
und@@
delhi
kal@@
robbery
alert
heightened
mak@@
articulated
stemming
289
cast
stored
283
happened
reconsider
tome
footnote
chernobyl
recommending
encompasses
subregions
conveyed
oslo
232
congratulated
buenos
hi
que
fullest
2.
collaborated
discrepancies
ats
30,000
overtime
238
tncs
extradite
dra@@
fled
buffer
ians
calm
bid
1968
accords
prioritization
replenishment
xx
animals
deepen
sophisticated
fossil
circular
7.3
constrained
absent
diagnosis
bwc
alizing
bor@@
ked
l.3
associates
redouble
errors
zi@@
diplomats
254
summarizes
prisoner
appropriated
catch
broadening
opposite
prospect
jan@@
tragedy
275
3.7
essence
nos.
ay
suspect
deter
forcibly
rockets
breast
footing
graduation
rank
transported
principe
blocks
accomplish
match
annotated
pic
vertical
crp.@@
pricing
devise
sheikh
insured
ukrainian
undergoing
fer@@
ocha
troop-
ón
basin
add.4
chi@@
ically
245
removals
hub
4.8
queries
invoices
fdlr
eec
spend
tele@@
disbursements
graduates
hectares
1267
ness
14.@@
exchanged
criminalized
wal@@
brigade
adapting
memorandums
privately
rebels
yearbook
sw@@
revising
qualify
underscore
219
abkhazia
obstetric
fathers
correctly
don@@
democracies
disciplines
repercussions
israelis
turks
capitals
alized
sen@@
simultaneous
work@@
dc
izing
correction
taught
appointing
dar
sids
198@@
pays
deserve
ahmad
mentoring
frank
preclude
happen
postal
materiel
15.@@
theory
252
art.
ef@@
disadvantage
234
bou@@
landscape
tor
bon@@
metric
constituencies
federated
covenants
seize
doubled
undergo
instructed
gun
3.8
11.30
excessively
crpd
khan
endosulfan
signal
ci
complying
destructive
bus
dac
án
incorporates
warming
tors
15,000
lesser
259
sel@@
terminate
paul
subsidy
graduate
inflicted
ninety
extensions
corrupt
272
superior
reproduction
1958
uncertainties
finances
regionally
expectation
deeper
t.
aut
ung
sol@@
add.1.
modes
abilities
spoken
suit
repeal
proud
appearance
originating
reformed
damascus
cescr
labelling
distribute
ane
defences
#
invaluable
objectivity
induction
5.6
historically
io
ty
ative
tv
ty@@
predominantly
newspaper
electronically
ro
grades
precautionary
kon@@
caicos
respondent
approving
variances
han
furthering
bat@@
imminent
multifaceted
simplification
corrective
anything
19,@@
surge
296
invitations
asbestos
permanently
deserved
karabakh
icty
governorate
jurisdictional
efficiencies
congratulations
litigation
battalion
292
ys
shabaab
drawdown
gendarmerie
manufacturers
encompassing
nursing
opcw
intentions
ll
disparity
myff
groundwater
impeded
promises
regulates
restricting
365
eighty
underscores
pivotal
poppy
frames
academics
conscientious
foreseeable
operator
acknowledgement
noteworthy
ly@@
peacefully
dominica
cook
∙
cybercrime
l.4
positioning
35@@
counties
ish
grantor
affirm
obsolete
ought
257
ley
certainty
bomb
condolences
margin
11th
die
rationalization
uncertain
routinely
situated
caution
frente
fpa
emotional
amphetamine
ization
nationalities
worship
dioxide
acabq
deliberately
andean
deems
builds
portable
confusion
outlining
bih
fruit
algerian
288
mortar
diffusion
64@@
hereby
editorial
gazette
hassan
mainstreamed
pragmatic
fellow
305
lake
disruption
educators
differing
wan@@
dental
hamas
supplements
19.@@
dé@@
cha@@
minimizing
dprk
personality
arbitrarily
array
organisms
cur@@
symbols
enjoys
radiological
fines
hereinafter
extractive
widows
streets
bo
nurses
asking
retired
rep
geo
annum
memorial
contravention
suspicion
moderate
checklist
contraception
standby
penitentiary
institutionalized
229
contested
implements
homeless
ars
relies
accommodated
wake
describing
hy@@
magistrate
reconcile
ade@@
12th
ns
container
cre@@
kitts
mc@@
undermines
invalid
pristina
registers
combining
dismantling
croatian
prospective
pretext
ology
honoured
ges
hindered
automated
ep
ranges
upgraded
ltd
thing
horn
implied
modality
18.@@
electric
shorter
n.
juba
passenger
impediment
ama
ita
249
kit
desa
cpc
valley
santiago
261
450
abolishment
pitcairn
editor
zi
peak
churches
staffed
unct
avenue
counsellor
cassation
slight
concession
caring
yah
256
couples
anthropogenic
cam@@
explanatory
promulgation
opt
8.5
buy
46@@
catalyst
stake
polisario
bad
friendship
serbs
commendable
propaganda
vicinity
attractive
disbursement
wrong
transformed
warranted
fr@@
xvii
nominal
nevis
joseph
unanimous
pe
6.7
suited
bridging
reputation
hch
hospitality
ola
wind
motivation
janeiro
ia@@
saicm
infants
shaping
professionalism
slovak
colleges
wastewater
alma
sec@@
teenage
sanction
cp@@
interlocutors
sanitary
un.org.
285
nor@@
wrote
lend
arisen
sme
trauma
experimental
puntland
unsafe
kyrgyz
opposing
proximity
clinic
gl@@
lifted
default
precedence
hamper
versus
avoidance
compelled
passports
mag@@
mp@@
pieces
everywhere
em
neglected
unisfa
sewage
agreeing
leaves
ver
deceased
induced
interact
detainee
reversed
ivoire
repeat
pain
280
wildlife
quest
illustrate
poorly
shortfalls
hired
263
316
discontinued
bias
ré@@
turnover
cartagena
precondition
erw
sti@@
18,@@
jeopardize
guardian
principally
landmine
negotiable
ise
dissolution
kafr
politicians
bond
backgrounds
hydro@@
bargaining
fre@@
incoming
deficits
interfere
coral
bienniums
262
suggesting
absolutely
my@@
modelling
bri@@
provisionally
5.7
cca
ping
disadvantages
incommunicado
distress
understands
carriage
promotional
permitting
censuses
44@@
supposed
leg@@
toxin
envisages
silent
blind
artistic
protections
biggest
expired
disposed
refuge
premature
bil@@
avail
entebbe
clubs
arena
prompted
refined
reminder
ying
um@@
avenues
odp
occupy
catalytic
computing
neighbourhood
diversified
correspond
titles
prevents
8.3
mp
attracted
david
cers
deploying
una0@@
unforeseen
equ@@
239
precursor
stringent
governorates
disregard
dire
examines
inevitably
exceeds
disturbing
8.1
rough
.3
rational
paramilitary
irregularities
honourable
door
impasse
tin@@
tal@@
yan
fal@@
cleaning
deficiency
entirety
games
13.@@
compelling
algiers
orderly
mes
fi
unequivocal
substantiate
petitioners
noble
engine
recreational
scarcity
16th
evidentiary
repatriated
55@@
mou
ws
terrestrial
sexuality
audiences
rare
offs
iv.@@
spreading
eg@@
13th
ascertained
criminality
overflew
unutilized
preconditions
ev
1970s
collapse
measurements
sake
tion@@
abandonment
declares
cleansing
sm@@
ches
4.9
nouvelles
concise
hol@@
56@@
deliveries
discourage
quo
scheduling
vel@@
talk
multilingualism
rebuild
disbursed
impacted
fed
purchases
depts
kiribati
crude
roughly
drove
16.@@
disorders
firing
retaliation
celebration
rel@@
maximizing
backed
diversify
den
preferable
add.5
ano
aries
mined
impressive
1,200
gn@@
reinforcement
bak@@
coal
sgb
lima
bombings
enforceable
phones
u.s.
vaccination
sami
jordanian
crossed
expires
entailed
clinical
amman
concurred
abuja
17th
optimize
mercenary
exhaust
constraint
sions
condemning
deletion
advising
muhammad
paradigm
reforestation
hs
belgian
contacted
highway
controversial
producer
sampling
critically
exchanging
engineers
l.7
consequent
vaccines
ibrahim
20th
destroying
ical
registries
prosperous
15th
pursuance
forefront
dropout
deserves
injustice
threatens
goodwill
parking
mercosur
preceded
ura
stimulants
responds
tak@@
illustrates
profiling
recurring
com
definitive
relying
deteriorated
l.6
denying
intentional
sti
paulo
warfare
defending
1964
reduces
seeds
rejects
extraction
pas@@
687
m.@@
timeline
mr@@
outgoing
professions
cotton
azerbaijani
diagnostic
aquifers
sat
367
surrender
dos
eulex
francs
bombing
consuming
impaired
rbm
ituri
decrees
rightly
ders
slm
cm
repetition
'a
whatsoever
cfc
punitive
sit
prone
entrepreneurial
geological
discretionary
explosions
violates
304
vaccine
18th
2030
17.@@
motor
1244
1962
gni
interpret
ence
operationalization
widest
nicosia
row
praised
lethal
los
complications
spider
carriers
sees
evolve
commending
and@@
bush
proportionality
typical
brothers
14th
promised
landing
immunodeficiency
hcfc
warehouse
ele@@
ously
csos
enquired
institutionalization
9,000
has@@
290
endangered
commits
ram@@
bidding
by@@
amb@@
humans
sna
281
produces
hill
fires
somaliland
7.4
confirming
voiced
wave
explaining
6.6
revitalize
eu@@
compete
populated
toolkit
wh@@
dependants
l.8
enlargement
berlin
po
custom
overlapping
inscribed
sensitize
iso
3.9
lusaka
eye
ny
conceived
firstly
subsidized
volunteerism
cambodian
photographs
waiver
xi@@
identities
greenland
luis
6.8
l.5
marry
iti@@
kampala
swift
repression
dgacm
liquid
purview
devised
hel@@
cocoa
267
2,7@@
gratis
criminalizing
administrators
287
uk@@
dldd
286
rendering
tourist
ila
cn.3
5.8
undergone
wil@@
civilization
proclamation
nordic
victimization
ifrs
19th
specifies
juridical
naturally
vol@@
unfortunate
inspired
homeland
uniformed
familiar
tends
exempt
ably
thomas
onub
ddt
comparability
practicable
mba
tic@@
ou
trusts
20,@@
restorative
authorizes
mentally
scholars
stigmatization
hardware
contraceptives
expiration
fnl
terminal
theatre
poorer
fgm
fellowships
ent@@
declaring
trigger
268
resignation
develops
ine@@
happy
laying
intensification
lord
costing
of@@
timelines
ideals
clandestine
ales
raped
bro@@
l.9
explosion
absorbed
tied
radical
margins
43@@
had@@
reassignment
persisted
expire
guns
charitable
66@@
conflicting
mac@@
display
striving
za@@
calculations
igad
presumed
pra@@
journalist
unilaterally
burundian
ker@@
spla
diverted
begins
colonel
shifting
stereotyping
ugandan
prudent
stimulating
effected
prefer
ful
coffee
hksar
simplify
sy@@
harsh
bol@@
tens
hardly
tc
orbital
imposes
entrance
depletion
finnish
pp@@
recurrence
crossings
injurious
mohammad
couple
22nd
reside
unregulated
consensual
sor@@
diminished
abbreviations
295
moves
checkpoint
279
surveyed
globalized
announce
sb
expiry
js1
wisdom
log
sister
argue
steel
carlos
else
80@@
cement
multicultural
push
8.2
cge
accusations
exhibition
are@@
inspected
tunis
tehran
affiliation
45@@
continually
ill@@
274
23,@@
20.@@
arid
pound@@
reimbursements
reveals
dr@@
assertion
ignore
michael
arriving
supervise
xxi
m23
forecasting
vigorously
25,000
supervised
martin
shifts
pen@@
ls
burning
warrants
1950
2,8@@
thai
prize
nominate
l.10
descriptions
wg.6
intervals
compiling
holidays
preserved
fishery
permissible
retirees
ple@@
stra@@
ya@@
attribution
gor@@
entries
editing
diaspora
depleted
keynote
ll@@
300,000
ged
solved
disputed
resilient
fragmented
bc
aquatic
preferably
ouagadougou
polio
withdrawing
á
template
guardianship
practised
bilingual
smart
338
milk
sharply
tre@@
technicians
bridges
trees
confessions
trainees
van@@
aggressive
sou@@
crown
educating
stem
refine
ton@@
ess@@
dpa
absorb
gge
sc@@
9.3
strongest
earn
embedded
1954
inc
1965
worsening
complained
questioning
unrest
responsiveness
recession
communicating
gravely
husbands
03@@
choosing
inclusiveness
kam@@
soldier
ov@@
gnss
fraudulent
273
warned
truck
execute
destabilizing
rou@@
maturity
inconsistencies
posting
assign
biomass
herself
packaging
leisure
theoretical
stabilize
tier
spokesperson
9.5
detentions
catering
broadband
inf@@
downward
channelled
acid
excludes
stan@@
manifest
solemn
sickness
pres@@
berg
3.
commencing
recruits
exert
l.11
ontario
derive
detriment
solitary
dar@@
asi@@
fifteen
cp.7
1946
bed
itl
damaging
decreases
ker
sto@@
variables
mari@@
ho
seeing
conferred
void
receipts
severity
l.15
indices
5.9
reaches
277
lump
achievable
differently
271
juan
soft
adhered
wise
abdul
abkhaz
recreation
sugar
tin
dwellers
toll
·
spacecraft
e4
selectivity
.9
reluctant
weakness
lifetime
appellate
ó@@
ups
constitutions
2018
chadian
−
mul@@
remand
petrol
boy
polling
kigali
selling
ize
xviii
concessionaire
rail
practically
approaching
circumstance
counts
forge
unowa
endanger
overseeing
09@@
abdullah
ski
referenced
tly
prospecting
mayor
prostitutes
chose
notices
landmark
oppose
af
fears
criticized
gal@@
daughter
alize
geography
settling
291
kor@@
naps
circle
rev.1.
contemplated
passive
music
workplans
reimbursed
closures
wells
yielded
losing
searches
trucks
nigerian
counter@@
xix
23rd
iff
t.@@
advisable
indivisible
ret@@
demobilized
polygamy
baselines
1000
del@@
9.1
ranged
sufficiency
pluralism
pos@@
posters
factions
whilst
exactly
unsatisfactory
she@@
ger
battle
aerospace
ring
automation
reactions
unfounded
depreciation
ny@@
milestones
caucasus
fir
monrovia
ović
repository
opens
acquisitions
iron
prenatal
abstaining
deterrent
procured
rom
maria
278
arm
sha`b
una
0.3
harvest
sl@@
land@@
drafts
puts
marginal
mediator
rican
warheads
rotary
revolutionary
tar
bears
malian
mtsp
papersmart
atory
ham
25th
tender
compendium
hfcs
inspectorate
kill
poly@@
bay
1945
believing
proportionate
indefinite
harmonious
25,@@
seed
om
tomorrow
caregivers
strides
bail
phasing
intangible
ss@@
authorizing
char@@
hurricane
2050
icescr
courage
motapm
suppl
š@@
303
intensifying
bold
newsletter
24,@@
dou@@
fundamentally
29,@@
assumes
wales
merger
ado
nc@@
chi
enhancements
im
bul@@
columbia
trace
guilt
transforming
altered
subordinate
downsizing
immense
charles
stepped
interreligious
mol@@
naturalization
chances
bad@@
openly
slums
nodules
backdrop
mer
philippine
thrust
2,9@@
agu@@
ants
miles
coping
298
40,000
crew
answered
unclos
sight
cab@@
liaise
experiment
competency
trainings
lasted
trip
pronounced
dec
unpos
authoritative
juncture
geo@@
ned
backstopping
cooperates
contempt
treating
vigorous
ü@@
gate
360
organizes
deported
down@@
hri
302
7.6
diminish
mai
fundraising
behaviours
fistula
pri@@
prioritizing
dic@@
mountains
exacerbate
loc@@
cn
untaet
proportional
slowly
cfcs
cd@@
prejudices
fostered
ć
aggravating
regulators
connect
gnp
284
enhances
hussein
privilege
syndrome
solicitation
secrecy
omission
intranet
26,@@
programmed
registering
refusing
l.16
917
licensed
compromised
warm
são
influx
peacemaking
unispace
eur
celebrate
fil@@
assert
rubber
click
pipeline
verifying
spot
warmly
wait
traders
store
alter
plaintiff
illnesses
rumaysh
pointing
herein
grouped
holocaust
discusses
tunisian
45th
nhris
ens
0.6
minusma
impression
ot@@
stone
tactical
investigator
afforestation
additions
endemic
gay
boats
weakened
stalemate
heating
furnished
sanctioned
trusted
basically
stores
friend
282
antonio
arbitrator
cr
hire
sed
hungarian
prerequisites
africans
story
8.6
therapeutic
munition
assignee
prepares
icp
isa
leveraging
assignor
je
improvised
translating
bangui
che
diploma
wholly
299
l.12
followup
cas
recognised
agrarian
301
reciprocal
ric@@
enclosure
kim
boat
balancing
rated
sk
tackled
kpc
shi@@
jurists
construct
unusual
grievances
sing
specifying
6.9
sr@@
validated
l.13
discourse
27,@@
discharging
compensated
ys@@
ela
dili
triggered
repertory
l.14
reminds
outdated
l.18
domestically
reimbursable
rac@@
upward
macao
sul@@
biosafety
equalization
deriving
logic
talent
aka
outlets
har
isar
sun
11,@@
ación
split
motherhood
francophonie
plastic
dj@@
characteristic
sun@@
mo
aligning
coup
quantified
neo
forecasts
exhibit
mes@@
acceleration
aj@@
machines
tour
brutal
canal
curbing
manages
projection
lo
inland
hg
genuinely
awa
eviction
boarding
alism
guardians
rulings
strengthens
humane
judged
cy@@
mos@@
nexus
corridor
coca
antarctic
robert
mahmoud
impairment
1874
21.@@
density
intercountry
logistic
des@@
les@@
ced
worrying
indicted
distributing
matched
insights
shifted
prevailed
dispatch
pools
cra@@
ire
winter
flood
maori
.5
vague
supplying
attachment
pntl
28,@@
desirability
gats
fugitives
bujumbura
cia
featured
cloning
positioned
ot
favourably
lubricants
reclassified
inhumane
relocated
careers
alleviating
ni
commemorate
gates
fence
encounter
imp@@
repertoire
hierarchy
convert
percentages
isation
prsp
xenophobic
9.30
ng
george
0.8
l.19
logging
graduated
cer@@
artisanal
ently
apartheid
md@@
estimation
stance
underground
amis
hen@@
pr
jure
judgments
defender
interfaith
addenda
accrual
ben
lca
hubs
construed
294
specialization
net@@
tongue
sinks
refurbishment
discount
behavioural
tireless
tyre
disagreement
rehabilitate
pervasive
42nd
may@@
preschool
rap@@
9.2
abandon
bacteriological
297
verbales
ek
worthy
eccas
dispatched
interdisciplinary
sky
wan
havana
variable
speeches
counterpart
su
drylands
variation
ging
accompany
complies
tu
striking
underway
bre@@
unspent
l.17
zing
corresponds
unrestricted
directing
influencing
gun@@
dm
debated
dur@@
let@@
servers
metadata
46th
undocumented
ut
persists
6b
devising
philosophy
310
insisted
chan@@
domination
grid
testify
shooting
testimonies
plan@@
buyers
counted
subscription
measles
l.20
everyday
n.@@
duplicate
ok@@
docs
flooding
ile
heat
paternity
1353
experiments
sediment
deb@@
reciprocity
ck
slowdown
22,@@
cul@@
abusive
corpus
displayed
mann
intergenerational
geostationary
belongs
alteration
postpone
tag@@
pn@@
interlinked
subsection
degraded
78@@
wet
med
majesty
broadened
seasonal
caught
remember
mechanical
counting
remediation
climatic
deadlock
54@@
quoted
és
311
wmd
penetrated
looting
ate@@
discharged
unreasonable
catalogue
kha@@
artificial
doctrines
28th
tics
crp.2
embrace
zo
procurator
creativity
self@@
revert
č@@
preventable
unhindered
medium-
12,000
reg@@
arrivals
maj@@
officio
signals
retail
shareholders
kashmir
330
evening
gonzález
presided
197@@
gran@@
sim@@
293
sincerely
23.@@
infringement
tours
750
efficacy
rcd
matching
commemorative
proportions
pac@@
pp.
27th
illiterate
inevitable
post@@
pur@@
alternatively
disappointment
onset
alisation
perpetuate
30,@@
pbc.@@
interdepartmental
resourced
ag
composite
unreported
envisage
star
petitions
unjust
collateral
rodríguez
stu@@
revitalizing
epidemiological
representations
iii.@@
hor@@
60,000
nile
baltic
lar@@
2a
foot
altogether
massacre
broadcasts
frustration
publicize
intermediaries
balkans
medication
lim@@
calculating
enjoying
importation
1514
interpreting
empirical
flagship
fun@@
fauna
head@@
1a
tribes
ological
swiftly
desks
organizers
kel@@
interagency
dis
gr@@
smoking
hostility
320
contributory
says
skin
don
navy
legislators
salt
dy
306
abductions
obligatory
24th
discovery
7.7
keen
cn.6
existent
ideological
intersectoral
ora
museum
reluctance
dh
jo
appropriateness
0.1
7.8
dr
pp
launches
stimulus
bw
alpha
collections
mixture
harness
vein
pic@@
touch
forged
determinants
vicious
beds
pl
physicians
citing
mid@@
enduring
mosque
stewardship
possessing
cwc
unused
manifestation
unite
napas
eighteen
63@@
ct
ventures
fabric
god
sitting
cmp.1
supervisors
scholarship
scaled
caseload
chairing
natal
embark
dec.
jus
abolishing
presences
unmiset
vitae
diet
9.6
ul
injecting
sympathy
demonstrators
broadest
eleven
informative
gan@@
3,500
locate
iri
shanghai
425
unmibh
seoul
tering
pensionable
liberal
90@@
yed
excuse
soci@@
26th
modernize
charts
307
hotline
forcing
sort
demolition
iro
knew
jury
sccps
react
grounded
assassination
numbered
hidden
bay@@
shed
loading
indictments
functionality
interrupted
onwards
hot
underdevelopment
add.6
mc
bis@@
hin@@
lowering
ray
ena
ese
optimism
rostrum
507
standpoint
ddr
manifestly
compare
unstable
dfs
photo
informally
deterrence
lan
abdul@@
frontier
380
sab@@
enters
centrally
improper
restructured
cautioned
cop@@
gali
dozens
uncc
sterilization
min
ain@@
refining
survive
ini
fledged
colloquium
contentious
nas@@
hfc
postponement
hrs
ces
reasoning
intake
ward
biofuels
exceptionally
ising
precious
harnessing
29th
sts
radar
shipped
england
allied
capacitybuilding
pentabde
tcdc
sums
postgraduate
hyogo
nat@@
cho@@
l.22
kat@@
merchandise
reconvened
8.7
ez
unidentified
periodicity
pbc
jakarta
sudden
remittance
implicit
313
prosecutorial
77@@
ved
din
multilaterally
mic@@
brain
iss
substitution
ranked
401
forging
65@@
312
respiratory
deadly
309
operationalize
pcp
factory
dol@@
static
vigilance
homicide
3,0@@
teach
75@@
hostages
sd
ath
conversely
equip
314
someone
eurostat
hom@@
colleague
blocked
yl@@
nar@@
safeguarded
interconnected
tt
origins
copyright
viii.@@
laden
constituency
arbitrators
liber@@
eyes
afghans
l.24
merged
redd
splos
ised
pcnicc
.6
destined
par
tf
altitude
engagements
ong@@
translators
textiles
dor@@
variability
newborn
comparisons
entrenched
fronts
anywhere
isba
youths
asg
hur@@
corridors
overlooked
headings
iasc
embassies
insight
308
gbagbo
fat@@
315
mit@@
back@@
handover
por@@
maz@@
contest
unwanted
.8
artists
lesson
ok
subcommittees
med@@
delicate
disappointed
nan@@
40th
barracks
saved
manpower
insecure
babies
sion
magazine
patriarchal
airlines
antenatal
lou@@
deem
hemisphere
objected
precision
addiction
kab@@
exhibits
ut@@
computerized
hrw
mitrovica
innocence
f.@@
expediting
wives
optimum
ky@@
dam@@
reserving
ppps
vo
hil@@
cerf
dwellings
centuries
kin@@
orthodox
diabetes
ess
wg
bamako
condoms
replicated
expiring
vil@@
sil@@
ner@@
ij@@
swing
congresses
correspondents
550
adjusting
interruption
informational
usg
correlation
autumn
unjustified
mayors
hon@@
!
accountants
leaflets
bles
ext
alive
omar
insist
manifested
polar
1959
harvesting
ac.26
interlinkages
droughts
lays
directory
kin
r.@@
premium
hotels
ped
continents
ira@@
troika
strategically
contradiction
affiliates
competences
gers
pave
taylor
departed
ning
infantry
symptoms
ias
8.8
vin@@
strait
respectful
alleging
fold
romanian
eva
326
ich
foods
passes
unduly
hay@@
0.9
ample
metropolitan
windows
hou@@
sunday
subjective
flee
precluded
pretoria
napa
hat@@
incorrect
transporting
underpin
mentioning
truce
concurrently
cp.@@
icj
bin@@
stipulate
lifelong
ities
assesses
cars
absorption
multimedia
appearing
mount
650
killa
worsened
jisc
complexities
kh
angolan
8.4
famine
residency
privileged
319
designs
cantons
enumerated
inefficient
envoys
tell
isi@@
monopoly
tlatelolco
oppression
biased
ö@@
jem
sla
nearby
ac.51
obligated
cartographic
circuit
mah@@
donation
disorder
martínez
wsis
7.9
warnings
48th
revolving
completeness
xxvi
detecting
seventieth
liberties
connecting
confession
las@@
sho@@
dispose
unification
150,000
safely
engineer
24.@@
zu@@
wild
tro@@
advisor
onto
neonatal
proving
opted
ati
beatings
mr
kas@@
james
1,600
combustion
vis@@
reporters
nis
rivers
habitats
els
sharia
tripoli
multilingual
reinsertion
alo@@
politicization
l.21
bos@@
red@@
rhetoric
indefinitely
08@@
yo
dri@@
99.@@
ratings
nacional
1718
tracks
exempted
cognizant
star@@
318
w.
conf.2010
30th
irish
principled
interpreter
disclosures
understandings
benchmarking
wp
idp
clout
refinement
repayment
hos@@
daunting
yan@@
short-
catastrophic
ene
tindouf
expedited
complements
breached
aga
hcfcs
inadmissibility
reconsideration
specificities
activated
§
workplaces
donated
't
tolerated
add.7
insufficiently
deliverables
o.
intraregional
1957
weakening
renders
earning
reversing
macro
rifles
intentionally
documenting
geographically
qa
neighbourhoods
bore
forget
band
incursions
primacy
daughters
categorized
dd@@
79@@
nic@@
retraining
gang
murders
lifestyles
moderator
ite@@
chrysotile
commentaries
formulations
unequivocally
gratia
rainfall
1,800
ow@@
nondiscrimination
ach
pierre
fuelling
barcelona
handicapped
discrepancy
uniforms
mainland
bag@@
epidemics
patent
omissions
trillion
saf@@
kol@@
journey
ris@@
ud
domains
doc@@
diminishing
admit
apparatus
proactively
ssc
imagery
kisangani
vic
convoy
lesbian
47th
acquitted
ía
inaction
recovering
synthetic
expose
hsp
deprive
piloted
las
kingston
1,300
wel@@
1,400
habeas
declines
water@@
localities
characterization
ideology
desktop
ture
motives
eng@@
til@@
mano
sporting
videoconferencing
informs
irrelevant
js2
contradictory
10.15
l.23
richard
widen
downturn
22.@@
unpredictable
implication
performs
qualifying
73@@
dro@@
gangs
myself
exemplary
unfavourable
searching
8.9
publicized
mediators
retains
modifying
saturday
3,8@@
g.@@
deployments
planted
oewg
infringed
massacres
eh
checked
wang
billions
dubai
commercially
ken@@
abdel@@
forcible
piece
charity
vietnamese
compromising
injuring
assaults
actor
helsinki
murdered
shelling
fellows
lecture
gre@@
vers
affordability
engages
unc@@
vetting
principality
wounding
jer@@
impartially
outward
celebrated
setbacks
illtreatment
sh
retreat
verbal
serviced
attributes
250,000
2,5@@
sg
volunteering
lex
bio
uring
fac@@
reefs
underpinned
trades
load
44th
transgender
mé@@
belarusian
printers
1947
unlawfully
ankara
cbd
belonged
abstract
shoulder
top@@
parks
overhead
kenyan
stabilizing
etc.
attorneys
domin@@
predeployment
mutatis
mutandis
rationalize
authorizations
prsps
ash
son@@
broke
authentic
prerogative
feeling
4.
low-
hdi
influential
anda
needy
cs@@
inadequacy
thresholds
aba
ao
policemen
distinctive
76@@
resorting
stereotypical
formalized
vic@@
1956
avert
clothes
occupancy
vector
punishing
l.26
tap
embargoes
wi
aff@@
lieutenant
supervising
deliberation
patrolling
ational
ii@@
0.2
fuller
differentiation
110.@@
ee
insurgency
abbas
ist@@
40,@@
materiae
lieu
l.29
mounted
reviewers
alist
387
l.27
prima
calculate
gen
vibrant
kho@@
lat@@
2,4@@
informatics
screen
finished
brochures
fri@@
underpinning
ering
residues
classrooms
enti@@
meals
outbreaks
incur
accidental
tan
unwilling
consumed
fora
43rd
tively
comparing
sad
sum@@
verdict
sf
pul@@
guatemalan
allies
multiplier
yields
bottlenecks
fon@@
immune
aung
ballots
paths
articulate
panellist
convincing
reactors
quorum
brokers
endowment
cru@@
sive
niño
ched
reactor
sia
moderated
singh
style
lodge
villagers
cn.17
ioc
def@@
misleading
l.25
intermediary
peruvian
cooking
archiving
cable
booklet
uncontrolled
sulphides
reindeer
broadcasters
holiday
inf.@@
conception
kov
demilitarized
interns
translations
exhibitions
400,000
ula
shadow
vacuum
weaken
suffers
minefields
checking
minsk
cobalt
stationed
democratically
license
rolled
emb@@
cac
ther@@
derogation
mistreatment
prescription
10.10
extortion
.7
bolster
37th
fits
tickets
tte
fies
recordings
ruf
probability
tenders
parole
distant
concessional
●
aquaculture
probation
optical
manila
unikom
al.
dispersed
facie
1737
sd@@
illustrative
lobby
insertion
kou@@
transferable
323
complementarities
extract
mun@@
flora
rolling
pakistani
ge.@@
rosters
null
iti
conditioning
expelling
endeavoured
dna
escalating
seconded
baby
unrepresented
mentions
contention
negligence
rers
ug
ae
constructing
subvention
vegetation
alarmed
fra@@
cel@@
substitutes
instalments
xxiii
gri@@
yemeni
compel
boxes
reuse
commune
shop
tha
practise
supporter
aya
bureaucratic
gps
slowed
inherited
invalidity
340
nation@@
1624
complicity
ching
cen@@
expel
films
disrupted
unconditionally
ford
420
sisters
1b
99@@
ihl
censorship
mayi
sha
unmet
factories
incumbency
länder
rer
eco@@
nagorno
love
41st
cb@@
predicted
dly
soils
603
temperatures
wco
energies
swaps
differed
317
destinations
traded
forgotten
chilean
technique
gift
batteries
copper
5.
preside
4,500
basket
disrupt
compensatory
ely
enn@@
travellers
albanians
economical
ideally
kr@@
cattle
325
nasser
fel@@
exerted
illustration
doors
catastrophe
stri@@
dem@@
treatments
divergent
pooled
è@@
wants
complementing
distinctions
kwd
freetown
sup@@
usable
gener@@
interrogated
objectively
geopolitical
improves
cholera
popul@@
tourists
overly
io@@
manuel
thermal
aria
premise
milit@@
run@@
reconciling
culminated
pdf
rev.2
occasional
irresponsible
surrendered
tactics
ros
maoist
328
surely
ass
alternates
inherently
smuggled
occasionally
plutonium
saf
tal
hizbullah
lit@@
forfeiture
dignified
pedro
inhabited
normalization
totals
progressed
ova
lifestyle
1,700
ashi
deaf
susceptible
346
terrible
importers
rigid
pin@@
ery
sustainably
hurricanes
invoking
321
reconciled
bilaterally
madam
consciousness
wit@@
satisfactorily
od
urs
wire
gol@@
tas@@
elders
meters
chr
50th
333
fault
referrals
introduces
homelessness
knowing
chin@@
breaks
streams
jab@@
super@@
staying
blueprint
wor@@
clan
gifts
burned
repealed
refrigeration
generously
sarajevo
cyclical
untso
cruise
disturbed
ras
crp.3
therefrom
fm
eufor
ils
cat@@
resist
pel@@
caucus
furnish
stones
awarding
law@@
khmer
outlying
craft
stockpiled
exploiting
transformative
327
win@@
adjudication
tree
31st
classroom
federations
stricter
88@@
warehouses
sharif
wounds
shipper
bit@@
knows
equitably
cri@@
ordering
pirates
raids
scanned
pcbs
planting
museums
operationally
low@@
str@@
topical
mou@@
fasher
aegis
tabled
kir@@
campus
equipping
335
ltte
..
battalions
outs
gos
tis
inte@@
jam@@
349
cour@@
520
arabian
iled
yl
xxviii
modernizing
38th
designating
eb
rejecting
hunting
ei@@
originated
punishments
haven
unintended
situ
26.@@
3,9@@
posing
missed
flash
inaugurated
anticipation
quasi
selfdetermination
unsuccessful
acp
christians
walls
aspiration
transatlantic
dc2
lisbon
locked
stream
jabal
nouméa
xxv
unh@@
estimating
premiums
vacation
brochure
counsellors
splm
10.2
strain
xxix
replication
feet
divorced
lomé
370
3.10
necessitated
ier
garcía
bans
probable
redistribution
resolute
listen
facsimile
concurrent
tense
ante
abstain
tyres
375
ml
disappointing
lawfulness
430
abusers
touched
devastation
tuna
l.38
l.34
silva
diversifying
sequence
alfonso
estonian
chronicle
cogens
cf@@
yu@@
inaccurate
fought
slower
budapest
stayed
realm
prominently
plea
khal@@
unwavering
89@@
statisticians
parti@@
heinous
sacred
sons
enclosed
unaware
sn@@
oc
median
fleeing
olds
homs
9.8
inequities
portions
enquiries
condom
airline
l.32
1960s
10.1
inaccessible
strife
confer
hosts
gear
tran@@
uzbek
sco@@
optimistic
semitism
cing
johnson
60,@@
allotted
vouchers
ignorance
jews
francisco
mini
dismantle
9.7
sad@@
midwives
lah
l.28
izes
1559
inactive
descendants
aire
any@@
bids
.com
hu
bunia
groundwork
depression
professors
337
conservative
instructors
editors
grouping
oh@@
34th
neg@@
och@@
ct@@
feels
fourthly
settler
35,@@
courtroom
jeopardized
mary
oceania
irs
housed
sas
ry@@
resorted
bodily
ivan
controversy
96@@
siege
metohija
fibre
ming
pop@@
sam
plenipotentiary
dan
encompassed
email
crafts
2,6@@
dcp
understandable
painful
pride
arm@@
defects
legislations
1.0
dissolved
biannual
zed
talking
home@@
39th
lindane
austerity
reaffirmation
rectify
delisting
ku
surviving
packing
differs
republics
briefs
324
delineation
reinforces
fatf
reversal
nationale
336
defensive
misc.@@
detailing
deliberative
crowd
iraqis
heed
michel
tru@@
lecturer
starts
diesel
amparo
unarmed
ek@@
notions
minds
pcb
prominence
institutionalize
incapacity
drain
reminders
struggling
ipf
pertain
ium
drilling
410
spar@@
50,@@
cfa
miguel
lee
ining
354
1955
ration
promotions
abstention
assuring
await
surprising
partnering
auditorium
thirteen
ombudsmen
scotland
anticipate
fied
ibero
flat
tel@@
ous@@
weighted
envisioned
abstracts
marie
conditionalities
tec
personalities
revisit
justifying
droits
smoke
clerk
unfip
upbringing
infringe
overriding
markedly
summarizing
edge
sion@@
loaded
bran@@
counseling
631
enlarged
erm
7,500
web@@
,000
ises
orphaned
kun@@
bab@@
440
redeployments
5935
distortions
bekaa
xxvii
pap@@
neighbourliness
ain
ska
sfor
ppp
usaid
migrate
escaped
gcc
1612
but@@
und
tim@@
redesign
cater
perfect
igo
icg
sr
366
4,0@@
ion
beta
possesses
pest
unmin
forbidden
elapsed
pas
provocative
server
rid
con
videos
foodstuffs
9.4
storms
influences
manufacturer
fd@@
electronics
gg@@
concurs
negotiators
deepest
horizon
influenza
coalitions
easing
'djamena
exporter
festival
strives
sociocultural
9.9
formalities
tight
categorically
dynamism
looted
physics
ading
feelings
resurgence
inquired
ether
monies
gy@@
interministerial
unconstitutional
322
hl@@
waive
unrelated
circles
emplacement
glossary
tp
shaped
lighting
guest
convoys
pon@@
complain
undesirable
ft
tol@@
palace
pooling
testified
,000,000
comptroller
351
inspect
dh@@
stems
751
happening
364
ambassadorial
ins@@
destiny
resistant
ros@@
spared
labourers
schoolchildren
pathways
ima
cautious
defeat
fuelled
dp@@
wearing
conditionality
abi@@
ik
dal@@
applauded
345
arguing
tailor
ops
lab@@
plane
334
petro@@
katanga
communist
dy@@
unsubstantiated
precautions
1,100
exposures
transmittal
renounce
criminalizes
mounting
vigilant
concert
farmer
unimpeded
kes
surpluses
antilles
fol@@
kyi
centrality
kabila
ken
pushed
quantifiable
stro@@
spe@@
ack
cites
matrimonial
instituting
intimate
squ@@
426
deplores
wetlands
sb@@
331
deplored
.m.
chapeau
pca
charging
indivisibility
mathematics
ue
36th
4a
victoria
inviolability
kil@@
resolutely
counterproductive
unog
tuition
lag
spokesman
fosters
aging
torres
jorge
unjspf
echoed
att@@
ip
distorting
trac
329
cantonal
storm
hide
tw@@
feared
348
desert
radios
rey
denounced
ades
lé@@
inaugural
symbolic
derives
rat
ancestral
lots
deplete
indi@@
maghreb
quarantine
crusts
bly
reconciliations
bir@@
arranging
sooner
met@@
honest
1572
ial
deteriorate
l.39
reprocessing
analysts
bidders
wedlock
progressing
incite
super
ms@@
33rd
bukavu
oni
booklets
parenting
proxy
caste
ossetia
394
stabilized
cyber@@
feminization
certifying
m2
msar
iyah
dust
shock
reconfiguration
600,000
sur
prescribes
awaited
usefully
ren
boosting
idi
cro@@
ville
332
35th
ino
npm
traumatic
406
perimeter
penetration
procure
interdiction
pensioners
tem@@
islanders
tered
venues
biology
tornado
tul@@
extremists
protectionism
alarm
metre
shell
baku
santa
jun@@
drastically
illegitimate
hindering
favours
2,400
csd
l.30
fe
calibre
technician
engines
palermo
licit
grassroots
dividends
spelled
backing
advises
destabilize
escort
l.36
microwave
ration@@
servant
gon@@
raj@@
cum
epa
pardon
responsibly
eli@@
debtors
insurgents
imperatives
fourteen
enrich
unqualified
ncds
infrastructural
validate
empretec
externally
cndp
detain
conspiracy
redeploy
1952
immovable
509
off@@
unhabitat
twenty@@
5.30
underscoring
mortgage
chil@@
dismantled
ng@@
relocate
hand@@
unipsil
generalized
quantify
kul@@
lawfully
hampering
ug@@
spots
arafat
unofficial
renewing
tra
rented
m3
3,7@@
deducted
extra@@
malaysian
add@@
earthquakes
possessed
generator
32nd
republican
peremptory
347
obstruction
fruits
brigades
mergers
denies
followers
highness
mir@@
implicated
fly
breeding
screened
internship
sal
insecticide
depriving
dom@@
aleppo
specificity
writers
dd
spill
impair
l.31
guarantor
sta
chlor@@
ecuadorian
rehabilitated
stepping
specializing
bulgarian
permissibility
football
indemnity
tou@@
lenders
beit
4,8@@
generates
witnessing
unlimited
suffice
coincide
zz@@
militants
monuments
conserve
doses
Š@@
deduction
mismanagement
sos
leased
va@@
05@@
embraced
radi@@
ast@@
wear
nyala
inauguration
kordofan
sap
predict
veterans
suitability
nurse
hopeful
ams
ario
smallholder
california
2,200
sm
packagings
fan@@
3a
discontinue
414
‘
planners
launchers
ona
460
breakthrough
omitted
asycuda
sat@@
ure
esteem
discontinuation
ambition
mature
3.30
afterwards
mati@@
manipulation
endorsing
shops
ozl.pro.@@
readers
cancel
497
teap
weaker
expended
convenience
got
redundant
petty
surgery
motor@@
khalifa
ño
lulucf
cumbersome
374
affirmation
searched
halted
5,500
buying
dropping
l.37
ref
anonymous
volcanic
endeavouring
graphic
iri@@
unf@@
adhering
apartment
versa
doubtful
lis@@
regain
fran@@
yaoundé
488
william
412
governs
12.30
das
341
kom@@
walk
df
aki
sav@@
l.40
comp@@
constitutionality
apc
rev@@
ram
distances
domicile
nit@@
oxide
ingly
mosques
ua
salaam
ä@@
inspiration
pun@@
unavailable
l.33
noticeable
tendering
tracked
ipbes
profitable
nagorny
cher@@
ceo
0.4
cy
aro@@
idem
candidature
cervical
casualty
lgbt
sson
ohrm
prefabricated
adaptive
attendant
357
happens
030@@
parenthood
narrowing
scoping
abstained
0.0@@
cn.5
leakage
25.@@
revoked
salient
344
opponents
est@@
attacking
2025
concurrence
eurasian
stalled
var@@
vegetables
disturbances
assigning
grenades
pedagogical
machineries
inspire
ste
unexpected
substantively
l.35
peers
ques
inv@@
l.43
leases
blatant
obstruct
peasants
shore
fer
ishing
reinstatement
adb
mixtures
kers
503
faction
aman@@
minimization
revive
minded
yar@@
jar@@
12.5
thanking
resigned
curtailed
waived
ces@@
firearm
pilots
97@@
az
gsp
402
1.30
invoice
summarize
induce
ening
neuro@@
gc.@@
hai
congratulating
fr
sizeable
channelling
formations
penalized
constituents
arsenal
edi@@
tbilisi
1521
ron@@
exile
pil@@
unspecified
mas
journals
upstream
supervisor
concentrating
ole
60th
stat@@
paved
ving
noncompliance
maría
zo@@
352
timetables
santos
patents
ccd
intervening
speculation
miners
istic
sergio
notifying
372
publishes
ère
pronged
octabde
deleting
realignment
rabat
h.@@
victory
iomc
magazines
formidable
bedouin
buses
yn@@
enne
kaz@@
segregated
lying
convenient
prescribe
intrinsic
ipcs
revival
specification
cpn
07@@
417
commercialization
index.html
balloting
employs
colonization
ml@@
pollutant
ique
ramallah
dealers
impoverished
uniformity
unsmil
transitions
,@@
cm@@
counteract
ere
erus
dating
rob@@
l.49
ear@@
jammu
add.8
rup@@
precedents
displacements
abo@@
tes@@
rain
centr@@
scores
costed
sr.2
hariri
meat
wg@@
educ@@
doubling
lon@@
reopening
fragility
prevails
cotonou
bursts
sis@@
inspira
patrick
empty
intervened
422
ign@@
pes@@
cite
415
broker
apportioned
mb
serial
unpunished
2b
eroded
bisexual
vladimir
grazing
12.2
asa
aux
trainer
lobbying
ber
plantations
mistrust
kindergarten
extracted
06@@
seconds
valencia
l.42
390
356
graphy
predominant
cf
343
iy@@
kindergartens
set@@
oapr
terrain
int
thoughts
stan
roman
agro@@
l.48
ç@@
kuala
incapable
kathmandu
fraction
radio@@
pd
implicitly
competitions
ich@@
11.2
neighbour
no.@@
opiates
characterize
ishes
bench
98.@@
surprise
shortest
guinean
lac
suu
ori@@
decisively
score
oversees
reopen
maltese
unrealistic
chemistry
kit@@
camera
exploitative
mt@@
contacting
lumpur
presumptive
burg
2.0
85@@
reward
assembled
augment
339
warsaw
incarceration
ace
chlorine
456
halting
optimizing
methamphetamine
templates
drastic
harassed
conver@@
variant
reconsidered
inasmuch
awacs
439
twin
dia
kay@@
assi@@
appreciating
remotely
49th
daw
dozen
backbone
ined
bullying
413
eo
487
obama
dam
divert
dt
hra@@
egtt
disarm
breadth
dwelling
accommodations
countryside
unmarried
sorties
aruba
pick
māori
harder
log@@
4,9@@
381
inc@@
fertile
416
superiority
12.1
separating
ei
deplorable
substantiation
underestimated
straddling
1503
ble@@
386
ico
sco
développement
ack@@
evacuated
emigration
childbearing
aci@@
uncac
ac.96
ecotourism
nld
gan
temporal
identifiable
app@@
ries
minurca
birds
hebron
indebtedness
simplifying
persisting
cartel
airfield
licenses
textile
ung@@
p.m.-
compares
tetrachloride
eve
discouraged
questionable
xxx
fulfils
rifle
expatriate
ghs
remit
annexation
sv@@
withheld
reintegrate
ets
habitual
377
362
releasing
extradited
child@@
bachelor
videoconference
ancillary
nex
stemmed
binub
405
inextricably
480
containment
solicit
info
diagnosed
355
irreversibility
nasa
cle@@
bus@@
phnom
dedere
cosp
zes
reliant
tible
sid@@
asks
bolivian
11.1
upu
unskilled
brahimi
meas
saleh
learners
363
equivalents
cmp.@@
kurdistan
560
boom
militarization
l.45
impacting
emancipation
aligns
cohesive
128@@
game
random
80,000
comfort
illu@@
780
ick
mig@@
inner
ancient
customized
prototype
dominate
kidnapped
necessitate
mt
gul@@
maputo
apprehended
servitude
referendums
lec@@
americans
6.
ambulance
heights
ambiguity
aly@@
ethnically
392
371
eng
mac
garage
denounce
ñ@@
jet
475
chw
familiarize
369
mw@@
mistakes
keeps
abundance
poisoning
shu@@
venezuelan
archive
lankan
cer
galaxy
barely
penh
entrust
provocation
gichd
13,000
retire
seea
program@@
restructure
850
disregarded
watershed
428
ard@@
409
judicare
liquidated
prof@@
situational
fixing
nobel
kad@@
661
ied
liu
361
salts
382
causal
l.44
catalyse
portfolios
9.45
dcs
bru@@
capturing
violators
quebec
occurrences
dinars
appended
aide
bougainville
l.50
oceanographic
bde
10.3
finish
barred
memoranda
crediting
353
acceptability
aqu@@
ac.50
l.41
fle@@
411
aided
unidroit
footprint
distinguishing
bic@@
ctoc
disastrous
87@@
faiths
varieties
jail
you@@
~
mps
blocking
anga
tolerant
lldcs
chen
436
457
protectionist
wheat
subgroup
profoundly
mers
dietary
convince
.htm
ili@@
sign@@
373
xxii
prra
morality
kap@@
qualities
outsourced
proscribed
mics
span
aw
drc
anchored
pay@@
nazi
342
path@@
1160
389
determinations
restraining
zar@@
somalis
intercourse
evil
28.@@
pecb
lagging
lawn
nil
385
purification
specialised
ori
hiding
fur@@
dep@@
cartels
391
tos
plaza
ums
remembrance
hes
408
tear
kim@@
reassigned
3,5@@
akh@@
principals
pi
propelled
depository
movable
crimin@@
iza
minugua
tically
bat
invariably
fying
semipalatinsk
dg@@
countless
fy
highlevel
nak@@
ores
ths
refuses
uninterrupted
politicized
oa
victor
51st
copuos
bas
quin@@
rewards
6,500
school@@
symposiums
odi@@
alised
telephones
dissenting
dre@@
codified
graduating
contravene
ished
rats
dominance
fore@@
wg.1
10.5
pers
jeopardizing
o.@@
commentators
authentication
glass
359
vit@@
fitting
anaemia
404
constitutionally
separatist
leasing
470
distorted
ase
globalizing
wellbeing
ens@@
y.
fatalities
vhf
iss@@
alists
baalbek
np@@
alities
robinson
100.@@
gatherings
fatal
galileo
hepatitis
l.47
ambiguous
fm@@
379
assaulted
workable
cha
brutality
2c
denunciation
vag@@
scattered
commenting
ib
racially
initi@@
outright
10.4
libération
unintentional
auxiliary
unic@@
dismiss
revol@@
meaningfully
stagnation
wol@@
renamed
reap
elusive
alterations
nominating
turmoil
negligible
relieve
nomadic
allotments
sing@@
widow
mam@@
nautical
illa
delinquency
hard@@
rus@@
nz@@
483
14,000
conscription
surgical
capitalize
derogable
tashkent
wards
saarc
uncts
replying
dc1
403
shots
waves
rainy
potable
reef
wrongdoing
sporadic
3,6@@
stricken
trilateral
barrel
ledger
l.53
423
incineration
harbour
521
misc.5
human@@
toponymic
obliges
deeds
revitalized
sizes
bes@@
501
510
3,200
railways
ignoring
que@@
simulation
compromises
landed
49,@@
rightful
unicri
underemployment
gon
fro@@
ín
height
teenagers
hospitalization
drainage
roundtable
islamabad
dad
sends
tall
fundamentals
arti@@
cos
terminals
rati@@
regionalization
imana
methane
approvals
averages
bethlehem
unabated
accessions
appliances
personae
oai
impedes
apec
1929
hum@@
358
pelindaba
bankruptcy
1591
elective
419
endangering
manned
mn@@
2,800
438
predecessors
pioneer
2,700
insurgent
colombo
org@@
443
deviation
xx@@
deficient
metry
repressive
spousal
scientifically
elevated
reappointment
py@@
standardize
deduc@@
athens
partnered
louis
supplemental
485
gue
mortars
endured
unmas
nik
hc
operandi
lings
restricts
exacerbating
premier
rahman
consultancies
formalize
uns@@
368
hcbd
605
ith
tandem
iias
person@@
internationale
siap
undafs
teri@@
kurdish
performances
gh
noticed
strasbourg
435
ik@@
rises
borrowers
forwarding
francophone
flo@@
winning
founder
nes
stocktaking
physician
janjaweed
fc
revocation
39,@@
540
khalil
francis
interrelationship
jirga
tina
pf
saami
ww@@
pharmaceuticals
adoptions
thor@@
overcrowded
inscription
blame
ado@@
mill@@
prog
ary@@
apprehension
furtherance
dryland
foreigner
injustices
crp.4
divisional
weaponization
continuum
steadfast
gauge
electing
paho
smith
interoperability
underwent
certify
eri
feder@@
unitary
miss
gir@@
hampson
karzai
downstream
km2
tamil
lu
clock
stereotyped
architectural
edited
js@@
2,600
meteorology
tern@@
fir@@
outflows
incidental
prerogatives
expropriation
numerical
prayer
38,@@
justifications
bosnian
igos
hydropower
70,000
hun@@
ket
intersecretariat
trains
plain
combines
hamburg
analyst
state@@
underage
approximate
graves
burial
yi
stamp
fastest
adjourn
l.46
lowered
shield
leprosy
cns
than@@
383
upgrades
437
stis
660
clcs
hus@@
unmanned
modus
revisited
shan
escorts
reproduce
flame
deepened
mammals
levy
decisionmaking
spontaneous
nearest
cis@@
swe@@
ail@@
fifty@@
js3
locality
contradict
tenants
configurations
appealing
yen
crf
unavoidable
tures
iya
í
ficsa
facilitative
ransom
plastics
blo@@
marrakech
communes
timeframe
provoked
minimized
â@@
halving
multimodal
was@@
differentiate
inciting
424
g8
407
torn
tetanus
definite
lun@@
gateway
sixteen
titled
fore
persuade
races
wireless
tam@@
mass@@
corroborated
advertisements
aq@@
withholding
2,300
oli@@
bit
hydrocarbons
binuca
averaged
uniting
administers
ption
celebrations
majeure
'état
triple
reopened
assertions
subscribers
recognises
visions
ious
kos@@
eduardo
joins
high@@
flemish
proficiency
aggregated
ences
sty@@
1,900
pt
tation
microenterprise
keys
risky
ami
metrics
reimburse
author@@
preventative
everybody
injection
jah
brown
bahraini
contradictions
5000@@
ecology
cop.1
xxiv
cyber
seldom
demolitions
l.52
www.un@@
idb
512
lock
fix
issa
ebola
councillors
forgery
integrates
ozonedepleting
grain
tac@@
gab@@
455
wg.i
advisors
apcict
418
ici@@
grenade
chlordecone
3.15
sept
tioning
inherit
asmara
speaks
maltreatment
marketplace
sealed
particulars
beat
jenin
cmw
medi@@
favouring
453
sourcing
entertainment
37,@@
needing
lung
freed
custodian
lodging
traced
nav@@
jul@@
lar
mel
ña
ić
433
santo
1907
directs
accrue
statehood
battery
nam@@
acti@@
suffrage
termed
arable
luanda
gil@@
spo@@
poprc
yusuf
auction
bed@@
precluding
symposia
habits
3,600
seismic
proves
delaying
iucn
aus@@
henceforth
unjustifiable
plots
posture
18,000
incest
demolished
shuttle
ais
86@@
ana@@
longterm
wat@@
necessities
aluminium
hinders
acidification
shar@@
inconsistency
dealings
ecstasy
aer@@
mountainous
demilitarization
376
nova
evasion
tie
36,@@
meter
flowing
comparatively
assassinations
thrown
cycl@@
pm
bullets
free@@
inward
wrongfulness
4,7@@
477
midst
desist
queen
meth@@
html
ours
rehabilitating
hun
yer
tk
day@@
suite
profitability
prague
rearing
unogbis
ero
icerd
protesters
empowers
happiness
800,000
5,0@@
prin@@
k.@@
jur@@
27.@@
buried
sand
rafah
detonated
faithful
cables
charities
awglca
chu@@
stamps
defended
patri@@
ath@@
devolution
liver
abundant
pak@@
thi@@
monua
sas@@
csw
salim
omnibus
remarked
healing
literate
640
reprisal
5,9@@
rp@@
seizing
fernando
fertilizer
embezzlement
arch@@
395
tantamount
sensors
multitude
aaus
definitely
378
lau@@
brand
diallo
429
pluralistic
longstanding
pure
ionizing
nad@@
nd
invisible
diarrhoea
lithuanian
intra@@
ude
install
mus
fugitive
alexander
explo@@
modelled
l.51
avi@@
auto@@
dedicate
differentials
48,@@
refunds
ascertaining
glo@@
matic
kaf@@
riyadh
traveller
492
pioneering
badly
sg@@
koc
dou
infringements
sana
conforms
dat@@
cardiovascular
milan
faculties
sit@@
inscribe
eradicated
ef
hungry
activist
hardships
proprietary
idb.@@
444
quds
chartered
mir
khan@@
economists
droit
zhang
intending
unscheduled
digest
narrowly
subscribed
similarities
literary
satisfying
interception
abdel
togolese
nd@@
cou@@
fin
straight
2.10
afraid
tech
form@@
700,000
chem@@
nodule
underdeveloped
viewpoint
fic@@
pupil
novel
secondment
pré@@
unece
pesos
metered
458
deployable
nelson
painting
impart
reissued
allotment
repaired
stopping
fp
adjourned
commissioning
445
hed
marc
misappropriation
year@@
oma
388
discouraging
disagreements
deregulation
foresees
3.0
short@@
hereunder
530
sps
486
onal
384
ambitions
bashir
431
mistake
aps
bordering
2019
490
quar@@
morale
vitamin
worrisome
naqoura
fiu
rally
shin
uz@@
128.@@
nuances
beating
950
fishermen
421
tas
720
zah@@
ther
duc@@
submunitions
electro@@
pc@@
niche
industri@@
nhrc
wer@@
rah
j.@@
weaponry
fo
8.
pol
505
asserting
françois
dawn
tb
roadmap
4.0
downloads
despair
updf
5,200
rapes
1.10
celac
amid
gc.10
perceive
uri
countrywide
collaborates
photo@@
len@@
ih@@
kilograms
hypo@@
46,@@
jal@@
hab
troubled
anim@@
anne
mombasa
tia
aac
transformations
2,100
ney
442
gent
agribusiness
morals
qatari
delivers
fulfill
com.2
397
11,000
obstructed
synergistic
cheap
aring
pos
bility
stark
718
fertilizers
hopefully
lic@@
institut
laurent
tendencies
sine
collec@@
dal
widened
listened
vs
criminally
ceremonies
zagreb
393
unwarranted
locating
kivus
1390
508
handbooks
inhalers
incompatibility
yev
dream
awa@@
0.0
aziz
turin
clash
articulation
rw@@
closest
tolerate
cancún
rd
succeeding
underfunded
helmets
advantageous
protested
merging
dz@@
ily
exemplified
switch
scrap
stand@@
montevideo
disruptions
ipr
disaggregation
432
consequential
sand@@
rebellion
practising
tional
colony
shi
backup
hamid
sided
529
wall@@
mitigated
grand@@
clerks
454
557
curtail
565
militant
iia
abdallah
ity@@
nicaraguan
cubic
submarine
bride
continual
impl@@
ius
506
newsletters
visually
renovated
contended
omb@@
ancy
speculative
bec@@
devastated
worthwhile
478
faithfully
pumps
mah
mex
incumbents
ismail
chechnya
noise
categorization
worded
clustering
ripe
disturbance
kets
bogotá
525
hydrographic
nickel
layers
htm
ines
canton
abovementioned
economist
grievance
collects
pandemics
particles
zation
ges@@
coincided
462
cpd
seal
south@@
biota
5,8@@
commutation
functioned
havens
inf.1
indoor
rents
motive
refresher
unsom
consumables
multiplicity
converting
setback
secular
altitudes
forthwith
ccs
dering
interrogations
exposing
ramifications
recycled
kov@@
wt
434
sacrifice
ened
quantification
add.9
anxiety
ó
dying
unov
bel
cougar
1925
l.55
hydrological
532
amba
genders
inadequately
dtie
tajik
interlocutory
e2
avl
cz@@
retroactive
ú@@
khar@@
bigger
impermissible
publicizing
bioaccumulation
icelandic
ances
malicious
leonean
unwillingness
advertised
justices
52nd
986
jel@@
albert
floors
mented
399
2200
operationalizing
presumably
corner
psychologists
4,200
cted
rains
12.3
arias
conf
efa
daniel
kw@@
398
outskirts
casual
unregistered
p5
delta
evacuations
tap@@
pertains
514
sewerage
plo@@
`
rest@@
way@@
departing
gao
kirkuk
straightforward
l.54
abreast
484
620
misunderstanding
instruct
practitioner
bulletins
dark
domingo
ofdi
502
khu@@
stimulated
baha
brazzaville
ow
feedstock
virginia
sep@@
sequencing
nepalese
compacts
contingencies
dissatisfaction
naj@@
rec
grams
graph
smoothly
pérez
searchlight
supra
cal
wer
fairer
accommodating
fda
ky
dams
ris
add.10
surprised
separations
avian
uptake
7.
shut
erroneous
divergence
libreville
hitherto
sectarian
instant
iqd
bp@@
analy@@
cartography
plate
listening
3,400
deserts
427
556
seeker
lad@@
anna
ame
enrol
ick@@
nh@@
hop@@
illegality
shab`a
archaeological
honorary
l.1.
erbil
sulphur
12.7
masters
lac@@
1.25
speedily
fis@@
ini@@
interfering
eb@@
authenticity
authorised
nablus
d1
biosecurity
58th
confess
ball
persecuted
spillover
ires
wash
stipulating
atives
sámi
depart
ité
cantonment
av
tone
framed
mode@@
civilized
disagreed
513
illustrating
451
escalate
prediction
sensitizing
los@@
graph@@
dictatorship
riyaq
cultivated
aden
chiefly
bits
exploded
employability
ree
carers
senegalese
learnt
materialize
consulate
echo
seg@@
rtas
femmes
gi
emoluments
ée
3,700
concur
sli@@
martyrs
dividend
2100
motivate
flawed
448
ë
yak@@
ately
pmscs
enrique
abiding
bass@@
pleadings
tage
classify
bishkek
pounds
merited
wholesale
466
main@@
4b
query
quito
green@@
una@@
cyclone
markings
545
flown
surpassed
microsoft
asse@@
rb
ven
kn@@
5.0
provident
house@@
kis@@
reactive
seniority
fitted
trapped
justifiable
481
seafarers
pursues
activation
nurturing
ï@@
necessitates
aiding
libr@@
cancun
totality
remunerated
mile
461
hamad
ement
leon@@
sequestration
handing
468
dun@@
west@@
chlorinated
originate
98@@
reflections
attribute
equivalence
earnest
unon
privy
salman
cellular
overnight
dn@@
hasan
ccm
uniosil
rationalizing
frontiers
confirmations
ecri
insistence
spacing
alla
courageous
earth@@
prob@@
surveying
oning
afflicted
reorientation
incarcerated
blast
jun
developers
activism
459
zaire
futures
oned
ory
vat
465
confrontations
ambulances
pb@@
reorganized
labelled
ingredient
bun@@
l.57
reclassifications
accumulate
bb
504
unis@@
humiliation
returnee
nursery
trustee
issn
pre-
9.
kur@@
16,000
devoting
comm@@
l.56
511
sans
celebrating
arab@@
counterterrorism
haz@@
suppressing
gainful
jay@@
kitchen
uxo
vegetable
paediatric
helpline
conceal
summoned
bot@@
aggravate
0a
ae@@
constrain
ios
extraditable
icrmw
17,000
pec
survivor
subsidiaries
confused
regularization
bucharest
paint
aggressor
our@@
winners
proposition
rem@@
marcoussis
wadi
bought
endowed
8,500
3,300
plantation
label
infiltration
498
outpatient
attested
waged
rouge
futile
scorecard
a.m.-
mailing
levied
facets
rein@@
dublin
ammunitions
inclination
candidatures
pc.i
conclusive
naz@@
led@@
litre
447
popr@@
97.@@
complicate
chancellor
22@@
maker
oui
laptop
iptf
persistently
cn.10
jonglei
dance
4.10
gam@@
dependant
jersey
departures
5a
derogations
sharm
restaurants
4,400
patience
vietnam
basra
remembered
undeclared
enthusiasm
spur
syn@@
featuring
elle
scottish
flew
tp@@
residences
ru
fla@@
brasilia
bnub
unreliable
asi
ossg
localized
progression
arc
stran@@
czechoslovakia
396
reasoned
reasonableness
congratulates
emp@@
wu
iuu
disarmed
13.1
oro
knowingly
barrels
ono
441
lap@@
institutionalizing
452
dhaka
isil
actuary
sensitized
bonuca
piecemeal
contraction
apartments
736
tations
3,800
harmed
471
bet@@
lers
invocation
1455
bags
veterinary
psychology
offshoring
522
malnourished
latvian
gaz@@
dilemma
cared
sediments
vu@@
138.@@
mone@@
mongolian
attackers
1953
scrupulously
normalcy
nag@@
unambiguous
piloting
bur
ultra
fever
computation
6,0@@
eness
inequitable
microenterprises
0th
laser
pamphlets
608
unplanned
gómez
interviewing
sexist
cybersecurity
arresting
oud
roadblocks
scan@@
thesis
warehousing
escalated
humiliating
unfolding
537
cio
alberto
clerical
braille
paros
arov
469
pg
495
deferral
cheaper
lim
oldest
446
perpetration
orientale
erg@@
ses@@
resultant
ipp@@
mekong
gall@@
basins
maiming
unavailability
5,7@@
ims
aj
oms
nurture
campaigning
unearmarked
resourcing
kra@@
tai@@
crossroads
kodori
bonded
eds
chowdhury
mouvement
4.1.@@
distort
atic
parcel
hlcm
gpa
reconfirmed
charcoal
fairs
479
troubling
landfill
unnecessarily
perme@@
toxins
449
adultery
491
minis@@
realistically
retrieval
objecting
rol@@
ph
heartfelt
monopolies
cso
isomers
uniogbis
worsen
dem
alerts
appalling
630
surrounded
obtains
a1
5,800
alphabetical
restraints
zinc
regrou@@
625
indic@@
trap
collaborators
seemingly
cbms
cadre
4,300
tetra@@
sworn
ron
mega
dered
hole
borrow
underrepresentation
y.@@
earners
mosul
463
advent
tightening
burton
congeners
replicate
whichever
compliments
oxford
aspire
colon@@
feeds
addicts
restated
inferior
duarte
6,7@@
9,500
ao@@
one@@
small-
ão
cheques
imagine
692
circum@@
hardest
nominees
pop
owe
bail@@
journalism
89.@@
47,@@
undo
idb.36
accomplices
roof
wp.1
prefecture
photographic
chamorro
57th
val
read@@
victimized
actuaries
plot
multiculturalism
onward
rfmos
concealment
osama
tum
densely
tari@@
gc.11
flourish
comparator
dividing
gc.7
neutr@@
kandahar
soliciting
cris@@
dowry
tents
dele@@
antarctica
ency
comesa
sac@@
mustafa
insignificant
fire@@
3888
doc
irreparable
1993a
hua
cyclones
proponents
biennially
ix@@
unreasonably
35,000
smallest
slowing
annulment
kar
e.0@@
toilet
hydrogen
menace
undeniable
destabilization
detaining
dean
illicitly
businessmen
sible
geneina
embodies
kilometre
ful@@
hereto
ili
ecomog
crp.5
subordination
denuclearization
comfortable
new@@
115.@@
facebook
1820
acy
malagasy
120,000
telemedicine
invasive
halve
467
crow@@
hiroshima
token
peasant
lamps
wssd
candidacy
transcripts
predicated
tiveness
ship@@
eager
12.4
editions
alling
manufactures
ideologies
islander
abd
escrow
dfid
nobody
anticipates
fdtl
perennial
minus
minim@@
prudential
twitter
disintegration
perfectly
adam
harmon@@
legitimately
unda
ero@@
hia
is3.@@
vieques
548
dine
.gov.@@
polarization
inseparable
steer
oceanic
abatement
4,700
acu@@
interfaces
defiance
busan
464
islamophobia
4,600
518
bearers
bric@@
uniquely
eide
rock
adf
sultan
ungu
lor@@
hydro
promulgate
liberians
É@@
es.@@
secretarial
throwing
ush
augmented
odr
herding
internationalization
tries
10.05
clinton
organiz@@
shan@@
rab@@
pushing
overlaps
singled
ordin@@
perinatal
his@@
structurally
cognitive
elite
prejudicial
oils
australians
ents
oxfam
hair
denominated
95@@
altering
inga
workflow
applaud
harvested
drift
techn@@
ston
ide@@
niue
gwp
convertible
ción
viewing
2,900
spearheaded
amir
radically
sic
fono
zer@@
thro@@
tax@@
oph@@
grasp
straits
universe
allege
feminist
oxygen
lessen
appoints
allah
fdd
acutely
mentation
long@@
fluid
impending
luxury
tele
tus
inequity
subscribe
transparently
esm
meditation
4,800
1100
academies
shrinking
tissue
474
l.58
battered
reader
sr.
plates
dayton
864
db
refund
fortunately
multiplied
rounded
lop@@
610
ecologically
nitrogen
tribe
yi@@
paving
ills
handicap
pron@@
fry
waivers
paperless
`the
philippe
correcting
alberta
corr.1.
tskhinvali
zer
zambian
disruptive
coefficient
jamaican
prs
p4
riots
isi
potentials
6.6.@@
optimization
ose
tom@@
lag@@
garbage
black@@
musa
1533
sixty@@
sleep
buddhist
com.3
lessly
ements
cure
valuations
séléka
ress
swf
unfunded
offending
captain
iapso
dece@@
endure
linas
rotating
majlis
ify
wilson
rigorously
erupted
diver@@
backward
aalco
a.1
turnout
zionist
compassion
519
chf
armenians
js4
aosis
archived
494
watercourses
apprenticeship
obl@@
u.@@
pecuniary
rin
sentiments
manageable
reformulated
rss
seamless
penalize
mandela
predicate
pouch
struggles
itable
weights
resides
overemphasized
paz
489
contests
side@@
bars
zen@@
5,300
515
flags
raid
udes
coding
minusca
powder
turkmen
toilets
602
thin@@
rt@@
disrupting
2.2.@@
accessories
consignment
homosexual
tos@@
shorten
hernández
attaching
sukhumi
tured
reco@@
reflective
duma
ticket
aggrieved
intact
conveying
six@@
sabotage
repatriate
shah
730
pathway
sian
methyl@@
5,600
handicrafts
caregiving
apprised
5,400
sellers
erode
unfinished
526
prim@@
obesity
551
bag
implying
zugdidi
resin
dig@@
tea
fatah
wc
electorate
ray@@
tnc
uprooted
exiting
evicted
turns
bimonthly
rap
direc@@
gram@@
bb@@
equilibrium
1.1.1
472
grey
narratives
unwto
coaching
embarking
speci@@
collision
ussr
sla@@
player
cloud
743
posada
exp@@
ago@@
guissé
upsurge
580
arized
sy
abdelaziz
dignitaries
bullet
landowners
embody
premised
adolescence
wg.2
motivations
11.3
morally
overexpenditure
hans
crash
occupies
capitalized
10.20
idi@@
isla@@
gu
cop.9
intensively
comité
overhaul
122.@@
generosity
482
zul@@
unhealthy
prescriptive
grace
allo@@
....
reallocation
ids
dies
seaport
715
insists
3,100
iprs
suspending
746
reinvigorate
yard
f3
ould
ht@@
tranche
resettled
sher@@
seaports
para@@
1284
adjudicate
lin
guests
ification
bracketed
perfluorooctane
corresponded
conseil
ama@@
maxim@@
cameras
osa
ck@@
palm
handful
intrusive
dhl
aplc
leveraged
534
analogous
mla
desp@@
546
maize
570
p3
sacrifices
philanthropic
amor
amazon
honouring
importer
pdr
poles
extranet
staff@@
discover
'homme
endnotes
pipelines
fernández
tune
ards
resided
comorian
add.11
concomitant
qua
kidnappings
hama
afric@@
consume
mete@@
halons
midpoint
tee
emphasised
legalization
plenipotentiaries
storing
paraquat
loyalty
overseen
visitor
ella
473
say@@
scar@@
uneg
601
termin@@
inhibit
macro@@
cit@@
cop.5
lópez
show@@
ffe@@
bombed
633
1992a
recognise
baidoa
archival
ramadan
meal
canadians
hood
gbp
éri@@
earmarking
vić
deductions
registrations
jin
uli
prop@@
embracing
senators
zan@@
prefectures
516
circumvent
bombardment
tragedies
13.2
assimilation
604
mad
restart
amin@@
onerous
foam
493
sergei
poultry
mec@@
dinka
7,0@@
competitors
sw
yielding
ingredients
585
sef
brunt
cfs
476
recuperation
dom
7,200
bureaucracy
531
rev.@@
allowable
qadhafi
1500
Šimonović
reminding
mic
disguised
54th
risked
reclamation
disparate
planes
awi
tracts
planetary
coerced
vieira
guerrilla
geology
adp
emo@@
boa
slaves
tun
defec@@
replacements
3,900
aug@@
illo
oblige
ø@@
dictated
orientations
confl@@
karim
sec
casting
bund@@
consignments
inserting
gratified
public@@
prolifer@@
cancers
uno@@
purported
sdmx
umm
vor@@
talents
treason
609
ž@@
rotations
bdp
entailing
telling
tirelessly
mouth
55th
overwhelmingly
unoca
conversions
knesset
alba
centi@@
inflow
openended
oh
idb.21
0.00@@
subscriptions
ale@@
needless
groundless
aa@@
bernard
till
discharges
aceh
kanak
travaux
oon
tab@@
vitality
eating
rcs
539
tle
fined
reacted
resuming
571
basement
eit
gasoline
action@@
precipitation
outposts
periodical
prejudge
10.6
zal@@
flaws
ske@@
nhri
533
ordination
pbdes
assemble
kpa
commuted
sultanate
pastoral
see@@
tness
bouaké
pit@@
001
ordinances
mos
polychlorinated
oun
perpetuated
zin@@
guil@@
distortion
husbandry
obstructing
appendices
marker
wed
wis@@
enunciated
deploring
age@@
lent
commun@@
itation
praise
misca
uc@@
naming
unfulfilled
neighbourly
schilling
quiet
sadly
usama
hampers
contend
sed@@
7,600
modernized
sylvie
logo
flour
antipersonnel
496
athletes
forever
appellant
disappear
abi
derivatives
gues
patrio@@
queensland
bert
admissions
cla@@
ceases
banditry
indigent
khane
williams
nur@@
cep@@
6,8@@
devi@@
suitably
accountancy
ér@@
longest
53rd
photograph
materially
4,6@@
14.5
btwc
hierarchical
impressed
collusion
ond@@
emul@@
haj@@
terminating
l.62
circumcision
unbalanced
tiz@@
equities
yp@@
tentatively
rever@@
g20
curative
tun@@
c.i
boo@@
hindu
clean@@
rakhine
wealthy
vc
kare@@
burdensome
andre@@
myriad
toxicological
repeating
khi@@
inflationary
q.
eth@@
extingu@@
baggage
590
spills
tually
iga
remedied
airfields
revealing
l.61
yas@@
499
hall@@
impairments
sahrawi
kamal
gong
summons
equals
ide
twofold
ners
circulating
ür@@
laudable
practiced
bonus
nas
grulac
report@@
29.@@
cstd
cfaf
xes
royalties
provoke
organise
tioned
nap@@
misused
caf@@
recoverable
14.1
oz@@
cl
emanate
professionally
kno@@
3b
art@@
accusation
cop.8
ads
blow
ramos
acquiescence
crews
11.4
franc
loyal
ika
beni
582
substituted
warzazi
phen@@
iring
gc.13
unmogip
ey
ns@@
6.0
tial
linear
inflict
arbitrariness
standstill
yong
postnatal
raz@@
aca
56th
instituto
country@@
1991a
magnetic
11.5
pleaded
hydrocarbon
ables
conserv@@
tted
armies
cn.18
1502
overstated
14.2
photos
unomsil
deton@@
pes
e.9@@
appraisals
replaces
launcher
6,200
intimidate
circling
tr
writer
glad
narrowed
liaising
flu@@
enclose
ltd.
partisan
dmfas
averaging
consortia
xb
edward
yor@@
7,8@@
lated
aded
diplomat
undernourished
circulars
ey@@
637
unaccounted
4,100
asis
31.@@
1200
13.3
jihad
94.@@
wrap
retirements
defl@@
spra@@
champion
bal
maurice
sects
subcommissions
jac@@
ace@@
serv@@
fertilization
bah
bedrock
n2o
amsterdam
definitively
stop@@
therefor
nikov
persian
sabah
deh
rad@@
90,000
col
speeding
trc
berm
61st
reinstated
cruz
rampant
131.@@
oath
disclosing
motoc
articulating
ication
divisive
charters
unifying
ologists
ahmad@@
pv@@
farc
jute
zam@@
l.59
inqu@@
occupants
lights
foresee
cane
vi.@@
trou@@
akram
ch4
moot
consenting
stationery
prescriptions
bang@@
mane
cop.6
rous
commemorating
intersection
wers
hussain
requisitions
deserving
harare
leather
abe@@
583
generational
hindrance
withstand
118.@@
102.@@
expulsions
npa
pocket
inject
particularities
selectively
abdulaziz
eni
6,300
634
polls
ouk
withdrawals
wo
salam
hid
thy
rehabilitative
add.13
addressee
bomb@@
523
expands
asp
adheres
vacated
loving
vitally
3.05
ambit
milli@@
overthrow
superfluous
multiparty
clarifies
capitalization
intercommunal
124.@@
pornographic
sr.3
observatories
cons
reservoir
inadvertently
researcher
psycho
gur@@
recon@@
hyper@@
tenant
disciplined
jacques
nie@@
columns
cop.2
pastoralists
attrition
len
1930
unde@@
prevlaka
arduous
simpler
inconclusive
add.12
blan@@
modular
quote
fiduciary
tn@@
retrieved
6,9@@
viewpoints
pen
harvard
donald
1747
chris@@
fare
rene
interahamwe
6,400
ène
ples
bud@@
headway
552
pictures
mansour
unexpended
cp.16
psc
ves@@
555
2758
sensitivities
bing
rested
5,700
ant@@
ifrc
devoid
lagos
nurseries
qa@@
qui@@
ceilings
warring
dear
desperate
indiscriminately
iness
nowadays
pests
triggering
walter
horrific
underweight
survived
inhalation
femicide
nulli@@
honours
cac@@
reclassify
1199
criticisms
overtaken
theories
eous
té@@
frci
opec
527
indexes
secrets
won@@
bor
women@@
rethinking
leniency
dev@@
retiring
apo@@
prospector
syrians
objectors
mfn
pull
shortened
attendants
kennedy
specialis
lla
exigencies
conakry
disk
theses
latitude
homosexuality
substandard
gov.@@
axis
cultivate
568
inven@@
hunte
traction
deviations
navigational
hk@@
jor@@
fraternal
cp.4
alistic
gatt
immoral
dev
sively
567
perpetuating
shields
606
wilful
stat
oring
starvation
js
lib@@
kla
projec@@
payload
adaptable
733
mbo
ee@@
extinction
mon
106.@@
cpa
clim@@
lev@@
misc.1
knpc
diligently
hourly
1950s
misstatement
reassess
unpredep
conditioned
moderately
9,600
tz
transactional
ony
commons
dah
dow@@
ust
acquires
combinations
préparatoires
voucher
ader
shippers
frustrated
genetically
poster
coastline
bibliography
ald
mosquito
cin@@
familiarity
inadequacies
landfills
smo@@
inclined
1483
biosphere
tad@@
decommissioning
tien
hbcd
563
eda
538
epidemiology
conversations
kou
kan
nab@@
591
trail
arizing
remoteness
vul@@
inspiring
5,100
bra
pertained
adjudicated
mach@@
lateral
575
8,600
operationalized
549
iec
dimensional
démocratie
misery
secession
13.5
geodetic
hereafter
sud
song
periodicals
528
ensued
predetermined
patriotic
abou@@
constitutive
prudence
6,800
stole
doctoral
discounts
12.6
860
litani
heighten
wherein
detract
ann@@
fusion
koroma
unacceptably
abe
brotherly
echr
isle
dairy
matrices
sch
culminating
10.7
bioethics
claude
558
idb.27
flexibilities
dsa
enga
jar
provocations
nearing
plurality
8,400
cp.10
1.05
scourges
confers
even@@
thirty@@
alimony
ipa
sharma
peaks
sentiment
6,600
ie@@
numbering
afar
newborns
gg
solicitor
plat@@
exploratory
supervises
gü@@
mop@@
wasted
inuit
748
zanzibar
groundwaters
mpa
abolitionist
45,000
spin
1995a
tacit
anticompetitive
elder
fication
temporis
573
treat@@
philosophical
intertwined
merchant
asymmetries
l.60
filipino
festivals
gas@@
administratively
enlarge
audi@@
tings
apa
québec
hani
assistive
translates
17a.@@
mbeki
11.6
592
trajectory
thre@@
beach
8,0@@
itor@@
evaluates
nou@@
drives
lei
9,800
meagre
biz@@
morales
evade
richest
thi
tine
90.@@
544
unwomen
viol@@
lyn@@
inferred
coll@@
tain@@
afdb
loads
astana
bahr
gbv
ente
kak@@
malakal
chloride
reliably
refrigerant
3101
ap.ii
s.a.
562
amenities
wgrpe
680
gb@@
solemnly
mw
société
combatant
chronically
occup@@
smugglers
solicited
mini@@
opol@@
matches
forcefully
fashioning
hearts
cher
impossibility
emerges
shal@@
coasts
interchange
ctbto
egregious
7,9@@
hf
repairing
estates
evaluators
rah@@
astronomy
exodus
genic
▪
rea
ush@@
contiguous
1400
572
devotes
whistle
factored
belt
surname
8,9@@
oo
jails
535
stds
pinheiro
conversation
indictees
ind@@
136.@@
kidal
gcf
sep
protein
enshrines
celestial
traps
isic
leaflet
ato
ista
actu@@
real@@
mercy
steep
ele
basrah
salvadoran
swap
multipliers
wartime
u.
julian
mortgages
manoeuvres
8,8@@
626
aching
minefield
cee
tide
mark@@
oss
retrial
migrated
redesigned
9,200
sophistication
liberalized
emer@@
refuted
transmits
supposedly
ides
nutritious
alizes
hear@@
markers
7,300
pockets
cndd
517
100@@
medications
covert
decaux
messrs.
fen@@
renounced
attachments
placements
intolerable
downloaded
astronomical
rant
tivity
oper@@
laayoune
precludes
alerting
revoke
geothermal
lahad
unga
628
pled
patricia
inc.
bands
sandwich
disarming
enemies
cfsp
henry
redressing
rector
7a
discriminating
recognising
comprehensiveness
7,800
refinery
fide
ast
intrinsically
underprivileged
spa@@
concer@@
electrification
subversive
intercepted
ilia
bright
eli
fores@@
compu@@
trac@@
seating
geophysical
9,0@@
541
nowhere
bhutanese
stric@@
sov
licensee
installing
firewood
erga
omnes
logically
suc@@
idb.30
4.15
ular
paints
cp.17
nz
tfg
sheer
determinant
dogs
hes@@
encroachment
neu@@
loopholes
alled
abb
632
hoping
yr
vers@@
messaging
digit
fig
unsmis
fan
chaos
ert
574
framing
defeated
stephen
eruption
counterfeit
calcul@@
functionalities
8,700
contravenes
moussa
staged
taw@@
joinet
mentor
imper@@
tape
entrants
coun@@
unrealized
marginally
counteracting
ifs
joinder
intrusion
experimentation
22,000
upholds
suburbs
aral
renews
588
informals
anguish
divides
relapse
594
'i
cost@@
forensics
hygienic
Č@@
confine
posi@@
stripped
amar@@
zangger
fibres
exams
merge
mea
gets
elizabeth
hills
š
iaf
ulaanbaatar
59th
jeopardy
famili@@
9,400
nel@@
solid@@
parcels
stays
moun@@
yad
542
wonder
misunderstandings
thal
std
ieds
ardo
shores
begging
powered
lading
tightened
boosted
suits
foresight
1to
ont@@
mani
jpos
dismantlement
jose
prof.
moderation
imaging
lik@@
ric
598
shariah
biophysical
stein
formulates
24,000
intifada
vandalism
mirror
footnotes
8,800
yang
350,000
corollary
agg@@
nondiscriminatory
dle
1.1.2
1.2.1
zhou
dn
nia
convicts
aggregation
invokes
14.3
suspicions
sic@@
6,100
skopje
amin
detectors
579
paralysis
ital@@
dushanbe
washing
inefficiencies
chr@@
redefine
iaa
jav@@
anger
abor@@
gcos
agen@@
mechanics
acs
nin@@
christianity
centro
isolate
commerci@@
freeing
roberto
productions
ricans
plasma
manpads
taskforce
lem
pfp
enriching
petersburg
76.@@
blamed
exhibited
switching
2.11
701
culmination
absorptive
deiss
1863
561
folk
oct.
drafters
listings
nov
announcing
ret
aggressors
falsification
bms
lean
559
acceptances
morning1
vaccinations
medically
dumped
insufficiency
bah@@
burn
nun@@
tees
dhabi
olive
destitute
yn
biofuel
524
pound
690
threw
flexibly
109.@@
denominations
phil@@
andreas
8,300
exerting
mselle
chung
abject
oul
101.@@
biases
crucially
info@@
call@@
rainwater
scanning
exclusions
predic@@
616
ury
reintegrated
riot
exportation
10.
uniformly
rashid
legislatures
5.10
tery
bai@@
confusing
acquittal
intermodal
553
guang@@
sr.1
rfmo
inno@@
senator
sedi@@
redundancy
enko
agroforestry
subjecting
tanzanian
unevenly
a.m.-1
khaled
564
ac.198
deposition
wg.iii
punjab
compensating
abusing
additionality
mob
port@@
l.64
uncovered
lofty
pcd@@
probationary
wn
ann
727
spir@@
sem@@
emmanuel
idlib
731
pad@@
marrakesh
elects
balkan
ventilation
bind
gar
vii.@@
27,000
ouattara
aldo
seated
interacting
consignee
dependencies
unding
cpt
bandwidth
evo
576
disqualification
underexpenditure
strata
5,900
rd@@
grows
descriptive
analyze
cooling
bearer
blanket
appreciative
rescued
s1
theatres
philip
book@@
clicking
nis@@
cardi@@
defaul@@
vapour
nov.
hotlines
spiral
2.1.1
exacerbates
regulator
rud@@
correspondent
ipas
garment
inst@@
mud@@
596
l.63
unusually
554
772
mina
structuring
yellow
fiftyninth
rat@@
tapping
resisted
ell
architects
ppm
stretched
hits
unmop
cup
morgan
imas
assigns
clo@@
perigee
weakest
rich@@
578
affiliate
incb
max
disagree
discrete
numer@@
journal.asp
zak@@
proclaim
slovenian
kav@@
valuing
shopping
unt
opportune
1803
moments
dissent
adi@@
col.
justifies
ster
martin@@
gé@@
catalysing
interrog@@
imprest
thrive
648
rosa
581
session@@
revaluation
abad
issuances
mentality
gender@@
translator
smallholders
packaged
uda
activate
tting
aciones
mixing
sof@@
crp
683
locking
ilc
645
9,9@@
cruelty
reservoirs
mladić
counterfeiting
gunboat
iting
sever@@
62@@
impu@@
iles
enlarging
interplay
cyberspace
759
legitimize
discarded
hydroelectric
gou@@
547
rif
sein
aldicarb
polluter
palipehutu
sheltered
lapse
awaits
587
landslides
baseless
4,900
consented
846
plagued
valu@@
expan@@
ox@@
atin@@
9,8@@
aud
gf@@
2.15
rear
tized
communiqués
croat
767
iba
adou
grossly
pipe
ple
contradicted
plurilateral
undernutrition
repealing
handles
incidences
ference
warn
temple
30.@@
sol
waterways
diameter
ser
laptops
unotil
salah
défense
mlc
aviv
formulas
srebrenica
birthday
accruing
idb.39
tenets
bypass
time@@
undergraduate
ols
gunfire
mentors
asylumseekers
realisation
worthiness
writ
enablers
miponuh
enlist
awarenessraising
6,900
evenly
rea@@
uf6
536
engender
ral
zim@@
resign
catches
csr
607
indecent
kel
materiality
md
landless
resem@@
funeral
halon
dge
611
ria
reconvene
bhutto
polluted
contra@@
nps
poli@@
qualitatively
blank
Ž@@
heavier
sensi@@
aforesaid
desires
rafael
mauritanian
bloody
x.@@
geno@@
kins
harnessed
episodes
fluctuation
paucity
lady
subpara
ule
dt@@
trainfortrade
chef
inity
conserving
juscanz
paraguayan
chechen
com.1
headquartered
solvent
esh
566
evi@@
imp
hurdles
lessness
prints
unmot
mani@@
world@@
tri
unamet
jewellery
16.1
7,700
underwater
archipelago
relentless
amen@@
mara
privatized
fru@@
yokota
prestige
a2
inten@@
contaminants
tiered
respectfully
ld@@
cp.3
rarotonga
643
silver
annapolis
ú
l.69
devolved
ps@@
armistice
codify
statistically
ato@@
osman
eliasson
peace@@
exten@@
nee@@
584
trichlorfon
job@@
ğ@@
760
map@@
c1
opposes
9196
gratifying
pac
two@@
weekend
furn@@
gabonese
steril@@
entitles
yokohama
Á@@
phon@@
ax@@
arian
alli@@
greening
bengoa
well@@
endocrine
atively
rb@@
cadres
hact
knowledgeable
indians
543
overstatement
'idah
vill@@
spell
finite
eas@@
ishment
646
unes@@
hit@@
signalled
vsat
og
duress
interpersonal
hurt
lender
batch
vá@@
saskatchewan
9,300
distrust
band@@
alise
815
bargain
mails
distributions
anomalies
8,200
apology
ited
unanswered
mis
aqsa
billing
revived
pping
adversarial
socialization
nagasaki
wau
uni
persuaded
8,900
famous
migrating
kerim
displays
reli@@
lis
9a
vos
khalid
curfews
diff@@
founders
tsc
activating
hipcs
cpds
ogo
wrongly
pack
,00@@
doe
vac@@
processors
psd
absentia
593
speca
shel@@
legislate
vain
ination
yasser
forti@@
splitting
automobile
pistols
mubarak
culp@@
fai@@
affords
abm
apogee
gma
evidently
tip
tripled
von
thu@@
appointees
psycho@@
contradicts
encounters
congressional
switches
cplp
nanomaterials
execu@@
moh
né@@
interval
demo@@
dos@@
jebel
shame
treki
kadugli
compiles
venting
iodine
annulled
prolong
rav@@
prorated
tera@@
781
terror@@
oi@@
sharon
optic
pad
orphan
offenses
fé@@
wind@@
ony@@
mber
itous
openings
analyzed
picked
successors
elaborates
cu
whoever
tom
ii.a
embraces
inhal@@
onu
homicides
vating
namibian
boycott
lunch
total@@
871
75,000
mills
l.66
sé@@
psi
concentrates
determin@@
mobil@@
vigour
mond
organ@@
bu
hij@@
624
776
liberalize
qi
interviewees
aming
gendarmes
mu
tour@@
dictate
annabi
herat
13.4
complacency
proportionally
archbishop
schengen
angu@@
itations
1203
arthur
leo
pur
olog@@
undc
calibration
tissues
ffm
panic
1994a
cameroonian
otp
prote@@
644
642
hep@@
standardizing
telephony
paolo
cms
inda
answering
nes@@
exhumation
wl
recess
deliberated
undiminished
ptions
seals
18a.@@
walking
12.8
aim@@
collaboratively
gov
odds
erected
arguably
rescission
disputing
yamoussoukro
golden
increments
visibly
sr.7
regularize
rewarding
unscom
nutrients
deed
regretting
bona
congreg@@
ref@@
8,100
instil
orship
7,900
tob@@
impoverishment
technologically
garden
castro
2021
589
promoters
forgiveness
weighed
1132
2006@@
mber@@
region@@
incheon
icians
oun@@
logs
seventeen
healthier
collapsed
grou@@
directorates
litter
gram
econ@@
88.@@
ospar
asu@@
atolls
justiciability
forty@@
cau@@
ips
nutrient
dispersion
caracas
inviolable
polluting
compli@@
ance@@
busy
jiang
nep@@
cent@@
599
002
institution@@
15.2
galvanize
confiscate
caspian
spraying
ès
supremacy
add.14
l.65
615
uro
injunction
mindset
mana
cereal
airborne
pmtct
f4
cen
chest
jak@@
670
msp@@
transi@@
tl
wal
endogenous
broad@@
mav@@
tories
union@@
menting
ech@@
undt
accomplishing
development@@
sim
wassenaar
insisting
npms
queried
excision
cambridge
23,000
gd
intermittent
.pdf
crp.6
sensible
dov
meaningless
tt@@
rr
simon
2.2.1
yam@@
keywords
emptive
northwest
loya
ras@@
595
dropouts
.org.
orbits
bono
molecular
yun@@
graphical
gig@@
sludge
cohabitation
bau@@
gendered
coincides
ss.@@
retailers
lea@@
sourced
computerization
pin
haram
inform@@
schöpp
engendered
adoptive
turnaround
dg
prog@@
antly
8a
emi
hq
i.a
586
honduran
yuan
haitians
abul@@
falun
cosmos
vocation
fighter
7,7@@
tives
treasurer
inexpensive
cheque
pathogens
perpetuation
seniors
577
predictions
peri
gc.12
sop@@
seamounts
contemplate
mars
cec@@
disseminates
dent
gau@@
detonation
ulu
cop.4
hab@@
104.@@
proclaims
sz@@
19,000
bidder
instructor
mx
manifests
refraining
subsumed
15.1
nah
mira@@
tening
extracts
laos
assad
rmus
sens@@
daes
kartashkin
nt@@
misseriya
cardinal
shir@@
behavior
warlords
hijacking
latrines
dir@@
phytosanitary
cp.8
0b
rom@@
equatoria
stic@@
handcuffed
relocating
bour@@
insurers
traumatized
concealed
iac
gal
franch@@
repay
disposing
gene
interven@@
recoveries
oured
6,700
unff
984
potassium
dues
prey
treaties.un.org
ntaganda
ison
polices
annex@@
operatives
ftc
indifference
9,700
loose
852
summarily
coexist
cari@@
raison
8530
636
scant
portra@@
bombers
sex@@
karadžić
62nd
grac@@
cubans
lecturers
org.
11.
bird
sea@@
Ö@@
histories
1300
chlorofluorocarbons
peri@@
header
liberated
originals
partition
actionable
interrupt
refurbished
fitness
manitoba
intermediation
hag@@
herders
129.@@
gr
nuclearweapon
deterring
eries
checklists
beans
toronto
heartened
wound
shin@@
sánchez
758
92.@@
underpins
unded
rethink
affiliations
ccf
1860
swa@@
mario
bloodshed
curve
wg.ii
titling
untold
clarion
flammable
renowned
rog@@
tho@@
financiers
26,000
sensor
c.ii
betterment
reyes
catastrophes
hutu
orphanages
achieves
pelagic
003
brominated
var
maa
crp.7
catherine
christopher
ature
bank@@
insurmountable
advertisement
28,000
shab
karen
l.67
c.19
delighted
pronouncements
tat@@
cadmium
'escoto
esti@@
cit
sociology
adaptability
hellenic
kes@@
jp
maimed
resolves
nws
ccisua
belongings
overrepresented
hospitalized
rectified
rescheduling
withhold
fuses
zu
flores
samoan
grantees
unprotected
marsh@@
w.@@
619
une
subsidize
697
defuse
commemorated
heeded
elicit
vie@@
believers
phd
basing
stigmatized
unfettered
laundry
psychoactive
623
bac@@
renumber
ascribed
21,@@
mhz
em.@@
gs@@
cho
muñoz
sydney
para.@@
universidad
externalities
bani
ssr
wholeheartedly
adduced
iz
martial
kiev
diverging
confessed
leu
ame@@
sweeping
belligerent
688
lets
excav@@
635
frag@@
internships
correlated
iat@@
br
rep@@
pc.ii
kro@@
lens
baikonur
tbt
igh@@
traces
conciliator
aij
rallies
conven@@
deport
retro@@
humanities
sorts
investigates
iu@@
0s
tighter
mask
omani
inquire
pipes
fall@@
exposes
kiosks
bbc
camp@@
guernsey
ks@@
regi@@
devaluation
conf.2005
º
677
superseded
ambient
stre@@
sds
affording
aur@@
arians
lanes
beset
advancements
689
subscribing
strains
marco
651
gel
653
725
nascent
ket@@
habit@@
šić
ticad
lx
righ@@
sincerity
lawlessness
depreciated
yangon
europol
782
tability
fit@@
d2
herb
mediated
exam
anchor
incrimin@@
79.@@
refu@@
newer
symbol@@
ovic
2950@@
sue
569
13.6
cav@@
thani
abduc@@
msc
richer
sighted
nonnuclear
mayo
bap@@
longevity
une@@
cop.@@
xed
evacuate
writings
820
unsolicited
kis
ntbs
gui
alain
ac.49
wes@@
humid
polynesia
descendant
night@@
rapprochement
ril
blocs
brigadier
joy
bicommunal
scholarly
redefined
rpa
miami
trin@@
delineated
compassionate
defective
tay@@
reconstituted
indies
ë@@
wolfgang
icable
adri@@
ija
outflow
tox@@
nc
enumer@@
gmbh
videotap@@
improperly
afrique
firefighting
procur@@
classifying
apr
nic
tionally
ac.254
cpf
npo
liked
deschênes
oxy@@
kib@@
micivih
arrog@@
sr.4
weigh
excise
portrayal
consulates
teg@@
prohibitive
pit
aid@@
add.2.
windhoek
grading
rafi@@
staple
trouble
al-
fencing
kari@@
superintendent
sche@@
senders
js5
abetting
engineered
aud@@
hanoi
effecting
rescheduled
americ@@
isha
stoves
1343
belligerents
fundación
eur@@
7,100
aperture
nau@@
quantifying
amicable
meta
span@@
ambiguities
equation
abl@@
5b
distinguishes
sociological
affront
ig
wood@@
youngest
nik@@
entr@@
tem
dial
companion
mandating
123.@@
lawsuit
decriminalize
leaf
pal
10.8
b.1
jen@@
7.0
greetings
discounted
goe
34.@@
typ@@
srap
thereunder
wg.vi
energetic
alkali
ghan@@
662
butare
pros@@
723
prizes
brockmann
publishers
arson
usur@@
subgroups
tical
ulation
envelope
annu@@
brea@@
alan
masisi
deser@@
14.4
benghazi
osis
tism
talented
lg
1.1.3
catalysts
sui
nahr
yeh
benz@@
2.12
2.1.2
gc.8
ller
fra
stoning
thal@@
explores
inci@@
jan.
repaid
reassessment
telescope
a5
tist
vica
nigel
rig@@
mediate
rf
renumbered
spontaneously
thir@@
repositories
manually
613
carri@@
unsas
iadc
unanimity
ema
renovations
hashemite
11.7
purports
hema
takeover
revenge
press@@
monegasque
sus
roman@@
dispossession
anton@@
inf.2
ju
demonstrable
monte@@
conf.192
legs
witchcraft
transcript
622
sely
mangrove
unify
brow@@
nai@@
ordinarily
contravened
cpr
password
warmest
amy
dhs
margaret
biotrade
orient
gesture
inducing
cbm
spearhead
curricular
pretexts
surroundings
curaçao
liquids
ppe
7,400
fish@@
derogate
compensability
invaded
hot@@
comb@@
evaluative
cons@@
slogan
exoduses
demographics
armées
intimidated
iously
ghazal
gamma
democ@@
onom@@
i.1
download
clans
extr@@
alienation
kazakh
vet
sharpen
hesitate
ninetieth
mdc
recruitments
justi@@
771
imag@@
6.10
manipulated
ethiopians
aihrc
khat@@
bravo
transformational
king@@
key@@
accomplice
kai
kwa@@
tailoring
621
pig@@
forceful
sah@@
gomes
tre
abol@@
valle
1330
nagoya
ites
diplomas
16.2
curfew
restaurant
612
admittedly
slavonia
té
obeid
9,900
15.3
641
militarily
bribes
libel
fabricated
businessman
prophylaxis
infcirc
attest
onus
acat
presupposes
iber@@
defenceless
inmate
shareholder
fam@@
brotherhood
tica
gos@@
quantum
oblig@@
congru@@
kany@@
document@@
sin
2400z
vel
vip
ango
use@@
chooses
obsolescence
states@@
levelled
pped
nucleus
737
eat
unleashed
plateau
sanctioning
617
refocus
weigh@@
requisition
conforming
experi@@
depressed
collisions
chicago
timbuktu
1541
morris
treats
2008@@
anthony
671
conf.2015
8.0
cir@@
chores
dp.@@
layout
computed
díaz
nan
ghaz@@
enforceability
telecom
saharawi
portrayed
digitization
conceptu@@
monde
representational
fifthly
ruiz
chaps
ignores
chief@@
657
maximized
rao
cataly@@
9,100
flare
submarines
electr@@
l.68
doctorate
spr@@
atta
punishes
tim
2.1.@@
insult
fragments
dreams
5258
ava
unannounced
deutsche
div@@
fas@@
elemental
msrp
tutsi
809
93.@@
preoccupation
incurring
assailants
genome
dum@@
anza
bsec
refrained
pfcs
khe@@
conf@@
owns
eld
tains
forested
suspensive
vs.
mello
citations
onia
energ@@
unscr
moreno
peacetime
saddam
mona
quotations
ential
recharge
taxpayers
garcia
univers@@
114.@@
restrained
signify
raj
conf.htm
1998@@
711
professionalization
overturned
tower
specifics
1944
rata
materi@@
distributors
entren@@
hiz@@
enrolments
cic@@
nikol@@
ipec
4.11
tract
hezbollah
nazism
bribe
foc@@
paramilitaries
enz@@
casts
isdr
leng@@
violently
887
0.001
completes
besieged
ased
león
pirate
confidence-
delineate
outpost
xxxi
nus@@
eritreans
utilizes
unpublished
180,000
narrower
idb.26
rewarded
cop.3
diego
imperi@@
eased
surprisingly
synchronized
fishers
mcc
reform@@
drama
café
esse
legitim@@
brainstorming
repeaters
boy@@
744
lifespan
induc@@
insulation
ferromanganese
ferrous
enrollment
sou
orbiting
retroviral
dress
modi@@
597
messenger
rage
registrars
equated
mut@@
designations
fier
cents
leap
payables
unsuitable
die@@
ricardo
fiers
jm
ineligible
armament
till@@
cw
pé@@
clipperton
concretely
analogy
defray
swd
kicked
worried
tiers
gou
gov@@
propellant
traceability
bonuses
awad
68th
sink
faroe
interrelationships
afi
judging
recep@@
cdf
contextual
sional
collaborations
requ@@
publ@@
756
clp
pet@@
relinquish
dra
lurd
logy
dissidents
earnestly
idb.40
rena
1921
400@@
particle
sr.5
hebrew
indexing
stabil@@
watch@@
ball@@
tably
chin
conse@@
masses
opioids
rech@@
900,000
insulting
portals
org
villa
break@@
765
1864
lus@@
habit
pav@@
remark
gged
.html
gravest
pd@@
ramsar
modern@@
countervailing
6.4.@@
obscure
contagious
'être
decim@@
bp
yu
diffuse
unds
cornerstones
672
critics
rebuilt
inval@@
aches
adaptations
adjudic@@
728
nodal
teamwork
servic@@
pu
gardens
analyzing
arming
zh@@
hypothetical
chan
medicinal
categor@@
spi@@
kul
105.@@
676
formalization
redrafted
17.2
ngu@@
oecs
elling
nm
127.@@
guillaume
973
hen
jec@@
clearances
textbook
iso@@
foss
iko
biphenyls
andorran
70,@@
itiner@@
614
denti@@
promulgating
burns
ake
712
halls
lada
adulthood
gie
lucrative
aye
gad@@
memoire
ester
simplicity
i.b
0.00
casa
bangladeshi
tankers
waitangi
foot@@
raided
ost
precepts
ivan@@
threefold
tcpr
rm
veness
peacekeeper
sleeping
socalled
oppressive
passwords
reinstate
brcko
omo
scu@@
phaseout
torial
kow
fulfillment
kismaayo
amor@@
wp.2
defens@@
availed
ssa
videoconferences
emigrants
canberra
feb.
yukon
amaz@@
infra
shortcoming
attends
este@@
2007@@
pnc
purity
2004@@
lasts
travels
fondation
deleg@@
hanoun
dru@@
polygamous
779
retroactively
referencing
patten
aro
crowded
pax
grad
ridge
ipso
caus@@
enlightened
change@@
cone
wg.v
reassure
gence
strenuous
allocates
1c
sunni
tighten
guerrero
priv@@
noma
freelance
brutally
humanos
618
champions
iq@@
unvs
masks
ifying
suddenly
salu@@
lively
pillay
meg@@
benef@@
worn
conce@@
dic
custodians
abu@@
eighty@@
aliz@@
fizuli
medic@@
mission@@
unic
15.5
090@@
criminology
bamb@@
zhe@@
unp@@
classical
subcontractors
moratoriums
pyongyang
mentary
dings
652
hundredth
flinterman
biometric
vasi@@
colonized
acres
upc
lear@@
poprc.@@
0.01
tunnel
1600
cereals
demise
www.unc@@
congestion
42@@
ural
twinning
scrutinized
irreplaceable
observances
mov
pressed
906
manifold
ayn
mod
yumkella
arenas
heliophysical
distributes
zou
booby
discriminates
oes
guuam
phere
thin
uga
gc.9
ested
biomedical
propagation
superinten@@
qal@@
recidivism
asts
compl@@
js6
provoking
repetitive
reintegrating
benthic
depot
partum
alex@@
dispel
p.v
repe@@
subcontracting
voc@@
aired
depots
soo
dismissals
bep
remarkably
706
mäori
kova
chlor
nonstate
creed
fidh
barbaric
hawaii
17.5
2004a
tracted
mony
658
confrontational
marketable
reintroduced
hailed
gha@@
comman@@
squarely
stipulations
igi
scenes
lacunae
isis
regeneration
hn
regression
stagnant
expecting
18.5
velocity
sharks
mistaken
escaping
odd
olo
override
kid@@
democrati@@
aarhus
atrocity
bes
sir@@
operation@@
azi
wr@@
827
showcase
801
deli@@
fat
6.30
continuance
grande
proscri@@
preserves
atd
ineffectiveness
sexu@@
plac@@
acquainted
underserved
laissez
2.1.3
furthest
isas
17.1
sek
licorne
685
divorces
95.@@
atoll
3.1.1
teb@@
bolstering
interconnection
referenda
internation@@
highways
perpetrate
120@@
iterative
coo@@
osh
b2
jus@@
captures
eid
radicalization
unom@@
olo@@
proportionately
sued
16.5
outrage
florida
lav@@
appraise
subsector
plu@@
lc
zha@@
otic
asses
outdoor
ando
unfairly
abandoning
emplaced
pn
borrowed
homogeneous
.ch
dit
transiting
reorganize
shortening
bern@@
oblast
emitting
perseverance
watching
now@@
hass@@
lois
tex@@
oto
fluent
1840
combated
acci@@
kem@@
paix
walks
mock
debating
mat
14.7
lier
accusing
629
baker
renewables
gieacpc
wg.@@
soundness
convict
eyewitnesses
disposable
carlog
perv@@
pkk
nurtured
weighing
uti@@
viti@@
mur
add.15
prioriti@@
scrutinize
sustenance
transcend
syllabus
elbaradei
noec
phan@@
nk@@
rul@@
nal
ome
kpcs
graham
bint
achs
920
kidney
dua
bos
2003a
fy@@
3420@@
musical
.int
conjugal
a.2
kosov@@
scientist
idb.33
olu@@
prepcom
1900
mayotte
iasb
én
salem
`at
convener
afro@@
jon@@
beverages
inflicting
idal
tedly
diverting
renunciation
diligent
fortunate
cpi
yar
gb
ache
batwa
chea
guaraní
judic@@
rival
gc.14
shim@@
sixtysecond
ević
ousness
tabular
srf
845
halfway
cop.7
sida
696
stimulation
automotive
authoritarian
ccp
lip@@
tanker
play@@
biographical
immunized
707
resale
idity
interacted
70th
wf@@
actic
sarsat
Šešelj
oil@@
sel
labels
hat
idb.24
reappointed
mination
romani
cf.
samuel
bureaus
thyroid
pap
chis@@
alo
hau@@
ocampo
6776
‛
spurred
pentabromodiphenyl
quez
autopsy
uruguayan
doubted
congenital
sequ@@
crystall@@
tionary
aar@@
illing
brid@@
647
yal@@
assures
90,@@
745
für
cancellations
gc.22
abil@@
fukushima
roc@@
asunción
1239
3c
remedying
6a
asociación
hizbollah
farmlands
0.15
unbiased
ô@@
bleak
sofia
nine@@
ffd
hb@@
advisability
enabler
stadium
34,@@
sca@@
691
deception
unit@@
wp@@
sci@@
2997
stness
taxi
junta
wheel
clin@@
pier@@
amnesties
colonies
8.30
poa
enligh@@
abéché
sionary
.htm.
abdussalam
suicides
0800
frequencies
cut@@
bey@@
idb.29
mtpf
hal
terior
butt@@
bron@@
cp.9
reviving
amends
invi@@
participative
scopes
iling
duplicative
bloc
incursion
anonymity
consp@@
montenegrin
710
1030
intellectuals
unchs
amply
diets
lia
inefficiency
grains
big@@
incorrectly
thickness
searchable
florence
teachings
spares
protestant
memb@@
prescribing
loved
ence@@
typology
diagnostics
jones
sl
endangers
bolstered
avoids
sticks
srs
contre
13.8
shoot
constellation
bruno
spanning
hydrochlorofluorocarbons
703
foams
kle@@
care@@
condoned
increment
untaes
ogen
absenteeism
hugo
atten@@
1800
zel@@
núñez
opting
rcf
relay
665
amerindian
duplicating
talked
opportunistic
policeman
desiring
semester
gstp
visu@@
helms
classic
volunteered
refute
vastly
nov@@
siz@@
unionists
untenable
ghajar
domestic@@
flnks
elicited
nec
668
asti@@
maya
sow
15.8
hk
theoretically
recor@@
fabrication
rics
represent@@
spec@@
hosp@@
rim
1,2@@
strained
umb@@
kk
panamanian
workloads
kyiv
igu@@
682
dad@@
normalize
č
energoprojekt
shr@@
oriental
solvents
owning
compulsion
subsectors
msa
vp
dob@@
individualized
baccalaureate
courtrooms
oscar
misc.2
kac
14.6
caps
kia
encro@@
guise
eggs
centric
dependents
eta
ests
cip@@
conformed
prizren
bhag@@
nasiriyah
widowed
761
reconstruct
extermination
fati@@
reson@@
migrations
paul@@
lot@@
conf.94
cell@@
culminate
vari@@
offsetting
causation
flagged
unrisd
693
ldcf
2022
enactments
crus@@
vilnius
intr@@
electors
abhorrent
encountering
fonseca
83.@@
weapon@@
160,000
blurred
tch@@
rassemblement
index@@
alejandro
2.2.2
judicious
infrared
astro@@
derechos
timorleste
drawings
757
wen@@
hydrofluorocarbons
contentions
cospas
dence
robberies
csto
wen
spa
679
maur@@
cle
jica
siblings
nonaligned
cid
maqu@@
permanence
overlook
dong
drone
margin@@
list@@
hex@@
ás
nuclear@@
wali
blasphemy
vaccinated
isps
suva
compounding
ator@@
endowments
806
unproductive
zy
outlays
attests
att
plague
jr
syl@@
770
micronutrient
temptation
tian
bitter
sécurité
overt
deceler@@
mia
aeronautics
postconflict
rit@@
848
decommissioned
cp.1
11a.@@
shrimp
precip@@
sraps
accountabilities
ac.252
materialized
neafc
ind
bare@@
ías
remanded
istan
trainee
api
infanticide
705
innovate
10.9
qin
fu
manoeuvre
eroding
l.70
alizations
isma@@
susceptibility
monopol@@
ifac
unaffected
authorisation
regularity
purport
209b
33,@@
networked
transp@@
agence
ond
tov
rence
lewis
uv
develop@@
sai
hyperlinked
ños
ater
sergeant
astronautical
tory
underutilized
opioid
flares
beforehand
township
methamidophos
cped
wgad
peripheral
ologist
aev
admitting
jane
util@@
succinct
associ@@
imdis
fw
dha@@
tag
tribu@@
lessor
concili@@
crafted
unedited
dissolve
carto@@
elec@@
premeditated
11.8
lund
13.7
1.0@@
escal@@
snow
wag@@
hein@@
667
plausible
imi
21,000
valen@@
horizons
quie@@
diphtheria
subset
detachment
untied
poliomyelitis
notorious
hypertension
mujer
winds
hedging
noncommunicable
pq@@
stor@@
spectro@@
weekends
redoubled
honesty
plen@@
blower
clustered
procu@@
a.1.
acknowledgment
rodriguez
distr@@
benjamin
roof@@
indexed
1230
thri@@
yaz@@
kps
moder@@
attesting
notation
suppressed
uf
tending
2.13
aml
excom
routing
contamin@@
1996a
geos@@
pumping
northeast
cousin
itting
unced
stakes
warhead
dismissing
struggled
sev@@
immensely
porous
choi
bibliographic
777
bared
terre
thur@@
disperse
furnishing
a.org
ito
lest
15.4
ido
conceptualization
qcpr
displaying
floating
denominator
committe@@
menu
l.72
tang@@
lofa
jad
scars
iw@@
liner
refineries
rou
gy
mechanization
fatigue
det@@
conscripts
kari
upwards
yus@@
aug.
homo@@
663
decabde
dari
marches
scotia
levies
wski
tech@@
uli@@
poin@@
quintile
kumar
28e
15.6
seasons
wd
mapped
ethanol
3.1.@@
nim@@
europa
antenna
feren@@
individu@@
irrevocable
bondage
underlie
732
privati@@
ohrlls
overfishing
breaching
disregarding
untapped
dil@@
interfet
hawa
frontières
65,000
small@@
horrendous
hrd
cartridges
parameter
extracting
polic@@
drones
fsm
infringing
ascension
17.3
gynaecological
subscribes
semitic
prc
there@@
hunt
752
plaintiffs
uded
examin@@
garner
andrew
speeds
666
counsel@@
transborder
towers
refinements
bab
idriss
bir
health@@
exponentially
patronage
condone
ritual
pag@@
pam
reactivation
zou@@
accountant
11.9
fulness
alvaro
justiciable
meh@@
pak
koran
lil@@
sheep
qasr
anch@@
salw
lifts
aggregates
swe
regained
cps
655
refriger@@
1556
678
assed
kau@@
basi@@
supranational
rin@@
castes
pimentel
mlf
strateg@@
repositioning
predominance
optimized
.1.
porters
18.2
nl
mrs
receiver
javier
obstruc@@
cn.16
lounge
740
conferring
774
apctt
derivative
unpredictability
prematurely
uhf
inn@@
chou@@
transitioning
soyuz
achi
inary
fus@@
ariane
tir
borrower
1546
spur@@
apt
uncommon
presidencies
vientiane
rem
poznan
augmentation
tavares
organisational
icing
litig@@
latest@@
721
decals
dysfunctional
petr@@
roll@@
antonov
arity
meanings
r2p
rosenthal
stp
mk@@
originates
separatism
salinity
12.
unintentionally
dearth
sr.6
ino@@
nicholas
https
procurator@@
opiate
candid
cij.org
resupply
system@@
rendition
severance
finger@@
m.1
rites
aise
wrec@@
augu@@
paradigms
dab@@
28d
ile@@
unt@@
ghanaian
unilateralism
malabo
deliverable
thompson
mostar
guarding
postponing
jamal
2000@@
pv
dermal
constraining
genetics
638
synonymous
reunited
reas@@
dalit
romero
itors
loses
674
004
louise
lawsuits
overruns
www.icj
genocidal
paralysed
prompting
surfaces
natur@@
1904
pump
builders
tse@@
underutilization
649
hydraulic
generis
legislator
656
remuner@@
ndez
jehovah
ld
unquestionably
terr@@
heterosexual
67th
xia
pf@@
pule
708
corroborate
embodying
appl@@
chargeable
zon
lø@@
hydrology
fund@@
functionally
managua
cooperatively
jeopardizes
revolu@@
extor@@
itto
oceanography
interdic@@
ethno@@
sinti
dez
rodley
alek@@
ngok
mood
afri@@
attraction
decentralize
vez
poll
irene
hir
resisting
maniema
harms
glob@@
familial
outweigh
793
christine
sacrificed
robo@@
reproduces
buoys
insults
aboard
elled
refrigerants
cec
customization
sbs
lyon
encies
858
testament
zoning
vancouver
heartening
841
necessitating
melting
mont@@
mont
abrupt
ille
010@@
focussed
rail@@
iaac
cinema
675
barbar@@
embar@@
deir
ex.cl
deen
pbde
enormously
road@@
hing
uploaded
passer
trailers
renaissance
698
idb.41
rece@@
ichi
sous
fanci
mtp
penalizing
nac@@
654
ds@@
overflights
stealing
guantánamo
mena
stretch
cham@@
solidi@@
infrequ@@
lip
approxim@@
ceos
criticize
ano@@
isha@@
vas@@
aggressively
ballast
depicted
mod@@
correspondingly
comm
smar@@
ein
policy@@
decriminalization
ouse
tabul@@
cross@@
sattar
ccamlr
684
sung
guez
zs
repu@@
podium
1-
sorrow
apia
utter
cay@@
inmarsat
fraught
arya
jes@@
jpo
11.15
reactivate
angle
jong
py
idb.19
96.@@
martins
monastery
imer
distressed
shocking
karachi
ffs
synthe@@
harm@@
681
esc
735
miller
699
turing
footage
15.7
subversion
augus@@
berry
adhe@@
receivers
bam@@
enumeration
sky@@
ink
adop@@
c.18
photograph@@
power@@
gabriel
researching
e1
winner
xlviii
grandparents
heirs
hou
countercyclical
paren@@
ationally
cultivating
deprives
rum
dog
canz
dioxins
kila
spc
miscarriage
812
satisfies
chenko
issuer
oration
130,000
acqu@@
1920
kaw@@
asymmetric
tanin
electromagnetic
remedi@@
deviate
uniqueness
eland
tristan
denis
fares
guarded
mice
decency
moe
squat@@
ethylene
generals
rcil
ached
hnp
nos
verifications
parte
emanated
decrimin@@
afp
numeracy
hydra@@
14.8
nyc
srh
visionary
nationalist
certi@@
chávez
oneself
1844
enlisted
waemu
mbo@@
tur
reco
fications
purporting
135.@@
underestimate
recommit
y-
pyro@@
adr
dirty
roms
bangalore
unborn
victim@@
destitution
detectable
salaried
79th
centralization
attractiveness
rights@@
gab
iman@@
lagged
organis@@
parentheses
63rd
wee@@
inn
pho@@
753
fleets
repayments
legi@@
inged
bread
xiii.@@
dat
iranians
nguyen
midwifery
femin@@
hm
4.12
naples
cognizance
assess@@
ser.@@
nomenclature
atorial
prasad
e-
contemplating
farmland
instigation
vaw
tirana
mfis
kavan
hew
descen@@
entre
1,000,000
hedge
stock@@
identifier
witz
retrieve
fpi
pneumonia
627
ellen
dee@@
supplementation
til
repl@@
ivorians
--@@
substantiating
keeper
smokers
triangle
usepa
yuk@@
byp@@
sparked
ordinate
forbids
emigra@@
hirmil
ctitf
1999a
639
profess
883
74@@
cont
2002a
countri@@
udo
engendering
auctions
65th
c2
commanding
tm
cote
hari
banana
crip@@
oe@@
interlocutor
ć@@
icted
wanting
spells
relieved
intimately
special@@
texas
kobe
ngo@@
autism
google
constable
loos@@
muk@@
tunisi@@
pet
sodium
evo@@
1700
govern@@
macau
concurring
bw@@
performers
leon
1645
orie
palliative
chase
13.9
protesting
obedience
tural
interrelatedness
cad@@
cosponsors
enslavement
coherently
contr@@
minamata
virtuous
ac.261
add.16
ink@@
rela@@
sewing
custom@@
trawling
magistracy
capac@@
bent
blin@@
hos
testifying
750,000
80,@@
bere@@
davi@@
1935
invalids
mepc
eag@@
6.15
brunswick
slv
organizer
ures
flats
physi@@
1515
neglecting
55,000
oy@@
stops
gleneagles
internment
gis@@
866
fabric@@
agh@@
clearinghouse
664
sympathetic
noael
workings
inflammatory
validating
skin@@
scepticism
hir@@
som@@
uvira
33.@@
unk
sour@@
portray
residue
anxious
stanišić
783
apprehen@@
riz@@
extrapol@@
toc
dayr
gavi
aghdam
azerbaijanis
unchecked
conveys
9.0
71st
oul@@
hadi
bn
russi@@
wrong@@
simul@@
conduit
spelling
rn
drills
superiors
vila
axes
highlands
corners
graded
discernible
cp.2
gta
guillermo
cp.5
ortiz
presidency.asp
endless
commonplace
g77
beacon
moss
discer@@
reacting
downs
gue@@
moldovan
18.3
indisputable
intimidating
vivi@@
kamel
researched
heu
embarkation
oping
backs
73.@@
soto
cod
rov
inspecting
embedding
champi@@
restrain
tough
divergences
debilitating
identifiers
commands
townships
rel
790
packs
repeats
osity
kva
hydrothermal
turbulence
uto
lotus
breast@@
hac@@
duplicated
medal
fluoride
grids
endeav@@
unseq
arly
ravaged
dismay
tibetan
mts
competi@@
rigour
inactivity
studio
izations
dden
sang@@
noel
op.
sahelian
stipulation
luck
nkurunziza
785
hem
curtailing
787
subscriber
him@@
perverse
proces@@
blu@@
avo@@
metabol@@
icbl
moneys
3.1.2
127@@
goldstone
tren@@
rmi
characterizing
64th
retardants
tj@@
rescind
roar
ax
idb.23
punc@@
unambiguously
case@@
pole
gum
jana
douglas
66th
659
1.45
788
13.
gaspard
burdened
mf@@
ltc
omer
movi@@
dissident
geodesy
negligent
deminers
rwandans
tsunamis
interfered
ette
overheads
with@@
notaries
altern@@
emblem
entrepreneur
director@@
7166
eluci@@
maybe
promissory
lingu@@
atom@@
amos
unaddressed
mol
olympics
zar
observ@@
captivity
illustrations
instructive
ion@@
bian
z.
neutralize
rev.6
flogging
phrases
hul@@
lc50
fielded
rationalized
recur
cunha
17.4
2.14
useless
dalits
démocratiques
replicating
exaggerated
frustrate
angel@@
mit
romanization
mai@@
1940
catal@@
categorical
rotational
amazigh
christ@@
lighter
vich
search@@
helple@@
gen.
collation
alerted
renting
5.15
nir
shameful
interamerican
démocratique
c.7
tyeighth
muja@@
corn
ane@@
guin@@
comprehensible
programmable
akin
sag@@
unpf
lingering
disqualified
idad
12.9
maryland
pueblo
turk@@
zam
e3
consul
garo@@
alising
absorbing
ld50
recalculation
10.45
coc@@
wings
kachin
shocked
mutilations
biweekly
ocul@@
cp.13
a-
bishop
fruition
designates
chairpersonrapporteur
1.2.2
bot
eq
aggregating
typhoon
misconceptions
4.13
counsels
priori
marty@@
overwhelmed
detectability
chloro@@
systematize
ameliorate
attorneygeneral
regionalism
ligh@@
kv@@
beauty
onic
susan
tunnels
pcs
mtr
weissbrodt
shannon
sap@@
dark@@
entrench
aerobic
characterizes
hoo@@
jitap
acio
citizenry
subsections
decontamination
htm.
relinqu@@
chittagong
cryp@@
consolidates
mix@@
receptacles
gle@@
amalgam
pc.1
motivating
imagination
pharmacies
particulate
licensor
plain@@
complicit
croix
sterling
undocs.org
accessory
bm@@
gate@@
expatriates
pris@@
fearing
transmitters
obey
bled
rené
platoon
collate
bul
hob@@
hargeisa
tsh@@
rejuven@@
tah
justifiably
charting
scan
liberalizing
burnt
horrors
nimba
capacity-
roy
rodrigues
chloroform
detec@@
synthesize
argentin@@
hak@@
icide
formalizing
kilns
wang@@
chronological
keepers
regul@@
jaya
cadets
ifis
tidal
pus@@
appreciable
arri@@
19.1
disbanded
vates
ii.1
799
sf@@
thwarted
revamped
growers
lai
bulldozers
verdicts
prosper
reta
acity
keenly
trade@@
revisiting
factional
criticizing
taxed
variants
blacks
econom@@
dynam@@
farewell
ashvili
qa`idah
695
func@@
stimul@@
mej@@
10.25
telex
oth@@
1333
lec
microgravity
686
possessions
wilfully
oe
nitrate
elis@@
kić
psych@@
undu
res.@@
sano
814
colombians
mee@@
espionage
dinar
ices
ultraviolet
kara
contesting
xliv
panacea
presenter
onomy
jesus
ially
friction
irrigated
legislated
ampl@@
reconfigured
phy@@
jud@@
nippon
lipid
jc
704
lege
ares
obi@@
dro
rotated
newest
orthopaedic
absurd
bcm
gabr
prejudging
conferencing
assessors
Ç@@
kiln
stra
acc@@
neck
techno@@
defect
alachlor
ushe@@
840
disrespect
sibility
rumours
intransigence
bell
1130
rf@@
inhibited
meron
incubators
unsd
presenters
alien@@
764
tz@@
rutshuru
environs
aug
protestors
dispens@@
png
sixtyfirst
16.7
discontent
confines
fak@@
mitsubishi
pharmacy
more@@
idb.28
sufferings
anism
integrative
richness
quashed
imprecise
blowing
1933
baucau
waited
pec@@
legisl@@
phosphate
bracket
nsas
hédi
nama
mauritian
ccas
anth@@
desalination
hcb
mour@@
oli
koreans
cinem@@
agh
bombardments
seafloor
tana
anomaly
soul
compilations
669
kor
rug@@
retribution
tals
dug
leman
willingly
77.@@
ipc
nf@@
bn@@
drs
hexabromobiphenyl
daloa
grandchildren
propulsion
sey@@
ratko
contro@@
expo
724
trademark
tall@@
averted
interstate
ii.b
subsoil
pdf.
spirituality
lix
employ@@
tactic
abel
netanyahu
iac@@
contagion
sampled
bf
ê@@
walid
khojaly
nafo
photography
reclaim
sul
775
apprenticeships
jas@@
arn@@
perpetuates
affaires
attentive
insolvent
sanctity
spreads
chro@@
triennium
mag
institutionally
tony
mbu@@
edi
plun@@
denials
bounds
neh
oxides
denouncing
inet
outlawed
mlcbi
pronounce
pel
ases
uncoordinated
□
averting
udi
curriculums
disincentives
guineabissau
sandy
kurds
perman@@
staging
staggering
unat
dictates
investigatory
potent
cop.10
jeremy
junction
quickfirst
hed@@
niz@@
zhen@@
veracity
kamb@@
non-
erec@@
badji
stick
cord
impinge
packed
kr
b1
rh@@
ressed
nomads
bahia
manning
nineteen
readmission
300@@
apprehend
aramco
gens
dohuk
pastor
pasture
tragically
daw@@
patriarch@@
sulphide
esd
cass@@
arre@@
ange
shelled
786
declar@@
chiapas
mild
crimea
marpol
raymond
habilitation
sf6
gö@@
farah
signalling
thes@@
45,@@
tai
juris
3000
accruals
remo@@
hrm
aven@@
civil@@
fet@@
acle
mous
exhor@@
qualifies
purchasers
global@@
progresses
reshaping
reprioritization
verifiability
walikale
türk
repatriating
elli
siv
ncre
nervous
cylinders
paedophilia
politi@@
mie
glance
negate
vetted
jump
rotate
subitem
cv@@
projectiles
inos
conf.2000
part@@
fah@@
gallery
currents
ivo@@
ković
reassured
foundational
1526
literally
sty
nie
stunting
resentment
itis
congolais
calamities
747
haut
interruptions
reinvigorated
lobbied
aly
18.1
gambari
wy@@
unrecognized
admits
idb.35
874
instigated
memories
i.2
wca
namas
parathion
vert
762
1997@@
howitzer
prayers
position@@
hé@@
assembl@@
peaked
bé@@
mess@@
nord
criticality
1.11
exclusionary
gomel
berger
chw.@@
zerdani
demography
y2k
scholastic
10,0@@
convenor
mitch
proposer
renegotiation
ador
16.3
bd
wahid
accentuated
12.15
iea
tit@@
impro@@
recherche
brothels
tuning
tura
sid
haya
rrt
fia
rus
afisma
balaka
enka
alla@@
sniper
acceler@@
ara@@
797
dres@@
manipul@@
exc@@
1888
eupm
870
gtz
propitious
inhibiting
reckless
tibet
dealer
exoner@@
1566
iers
memor@@
himana
temp@@
dashboard
repudiation
116.@@
resubmit
bre
odihr
rolls
l.71
16.4
akh
stratospheric
ncb
therapies
magna
stin@@
bratislava
requisitioning
rho@@
obe@@
cooper@@
idb.38
ncw
aus
sequential
ect
ordre
lukić
overrun
hypothesis
2106
intern@@
xl@@
unw
mainframe
breadwinner
excerpts
hadj
dimashq
scholar
médecins
kop@@
tariq
salute
alarmingly
cé@@
buil@@
hamed
where@@
wetland
oct
slope
kindu
discards
jubayl
revel@@
seaf@@
lf
minawi
php
capitalism
roubles
sians
toolkits
marginalize
extremes
refocusing
evolutionary
alpha-
envisaging
sr.46
dispensed
erroneously
acronyms
proviso
pain@@
hinges
goa
nafta
distressing
guerrillas
empt
shab@@
marketed
rani
enge
reno@@
pulled
predomin@@
832
bunker
tionist
lati@@
survey@@
quinquennial
housework
flotilla
seeding
trailer
lgb@@
jad@@
drums
mim
redefining
synopsis
pressured
prolongation
32@@
stal@@
painted
mwa@@
wisely
19.2
assassinated
preponder@@
18.6
carriles
gcss.@@
andijan
eric
'é@@
najaf
pocar
seas@@
wenaweser
conceptually
primor@@
ary-
csi
haji
art.@@
saharans
deterred
cautions
characterised
822
samawah
dir
908
exogenous
ça
emble@@
moisture
anticipating
ombudspersons
adel
ays
simulations
sulfon@@
marrying
tile
convention@@
repres@@
ncc
complexes
913
voorburg
29,000
turnkey
frigate
ecd
ami@@
herb@@
unsco
projecting
excuses
jaber
isk
icsid
tubes
underperformance
messengers
skewed
alis@@
aoc
1.12
825
gly
oming
dilu@@
3.20
jou@@
iodi@@
hemispheric
impairing
hectare
urban@@
raps
emg
fort
csa
idb.32
proclaiming
converge
censure
eac
pri
frontline
egmont
cies
pulmonary
folklore
dict@@
abnormal
informants
jag@@
44,@@
colo@@
expansionist
fiftyseventh
stereotype
andré
gging
immun@@
frankfurt
shabelle
stac@@
housewives
devotion
μg
perpetrating
hyun
indifferent
p.o.
centrepiece
lion
jaw@@
coop@@
sharper
conduc@@
aze
persevere
ems
tasking
763
carcinogenic
epa@@
lifeline
retrospective
ruz
qur@@
johan
cave@@
attendees
commonalities
sizing
bling
unfit
auto
cep
chaco
macedonian
printer
subsystems
practic@@
magne@@
promp@@
independ@@
mans
dys@@
pope
tightly
equateur
2300
140,000
pim@@
caretaker
tians
hawala
oppressed
psychologist
fluids
isotope
liquidating
lactating
belmihoub
république
striven
enclaves
0900
36,000
leaching
778
consu@@
opanal
purchaser
severed
undercover
compressed
deplore
commences
disaggregate
lubumbashi
ob
mud
673
neos
slip@@
itate
consta@@
rp
grim
gonzalez
vicepresident
insur@@
overleaf
turk
graz
personalized
gustafik
five@@
behave
whomsoever
honor@@
s.un.org
physiological
702
provisioning
associating
aren@@
hara
ledo
latif
moti@@
christmas
thr@@
proponent
erc
dian
sidelines
felipe
ibn
invigor@@
726
reformulation
paradox
trs
pradesh
post2015
ashraf
moha@@
ungegn
homosexuals
birth@@
ordzhonikidze
reconstitution
robbed
slot
dispersal
radic@@
insecticides
compart@@
impractical
apportion
cog
paradoxically
pistol
monks
offense
protagonists
tnas
infancy
enlistment
papersmart@@
749
obo
acious
gil
underexpenditures
ís
gray
specialty
ï
abra@@
impairs
sra
nadaf
xli
osi@@
incapacitated
synchronization
obviate
agr@@
rash@@
dispatching
juana
eea
warships
dengue
jaz@@
rivas
prosthetic
malignant
shack@@
arsenic
sulay@@
nel
gat@@
aces
adu@@
hamilton
1.a.
cargoes
falsified
famil@@
rcm
mansuri
wea@@
horm@@
1534
subsi@@
walloon
`a
pra
tenancy
dv@@
rez
ello
banda
assing
oaxaca
singular
ossetian
burundians
tonnage
805
vik@@
qad@@
sits
mov@@
demol@@
2002@@
acha@@
hl
2024
smcc
touching
ngs
scanners
fari@@
enes
2400
conceivable
gini
aleg@@
excel
blended
spray
eously
adol@@
duz
lou
hang@@
bakh@@
incub@@
reb@@
ltas
qual@@
dss
suff@@
subtle
airways
fait
borg
pharmac@@
eoc
add.17
dex
syndic@@
overpayments
nullity
handicaps
5.45
sirte
hra
myths
armo@@
indul@@
saiga
prestigious
ac.37
aso@@
receptive
obasanjo
baranja
20.1
harming
stationary
thabo
716
eyewitness
forfe@@
ophone
lags
shou@@
prioritizes
raq@@
luka
ceas@@
kha
reorient
alk@@
relegated
radovan
motorized
modularization
idb.20
indemnities
fds
terminations
rt
belts
zay@@
heal
deleterious
summ@@
replicable
soluble
evolves
tham
genderbased
repatriations
agri
naf@@
srsg
dilemmas
vasto
delic@@
lesbians
tamb@@
applauds
sgbv
rid@@
cry
tube
tokelau@@
110,000
714
ore@@
pla@@
judicially
11.45
kat
hon.
opcat
space@@
gutiérrez
wei
beam
accumulating
teen
ala@@
samar@@
artificially
septic
cosme@@
discord
depositaries
722
diarrhoeal
habitually
unfccc.int
stry
manalo
shepherd
excesses
dwell
ussi
olig@@
puebl@@
bennouna
arily
vicechair@@
nomin@@
isco
frankly
himal@@
cascades
lightly
uncontested
skilful
anybody
egalitarian
cg
cohort
mumbai
742
limbs
apped
arra@@
lendu
filters
itated
esters
rainbow
bé
compatriots
amina
080@@
instrument@@
caesarean
bari
4.1.1
izers
'd
zine
kagame
tat
inhibits
islav
cndh
bosni@@
subcontracts
energize
equival@@
soap
prep@@
shat@@
ground@@
presid@@
good@@
thwart
jø@@
winding
conf.183
amorim
advers@@
tani
peculiar
3-
trademarks
84@@
shei@@
ware
predominate
virg@@
widow@@
relaunch
ipoa
nodes
unj@@
3.2.1
sac
dus
reassessed
victor@@
769
stru@@
sounding
caroline
unparalleled
prais
wed@@
majdal
discussant
boc@@
dimit@@
regiment
catchment
maarten
acking
Ü@@
news@@
mangroves
asha
filter
yans
abdulla
zuk@@
antidiscrimination
priced
lately
samir
cordial
desarrollo
kos
blowers
scrap@@
eps
zalingei
bie
arro
harass@@
unreservedly
aza
nkunda
verbally
frigh@@
depths
affidavit
mam
aeronautical
738
hijacked
ions
antitrust
truth@@
mirrored
kang
attitudinal
bol
mitro@@
14.9
somehow
intractable
workstations
Ć
algae
pln
yos@@
coded
cafeteria
chim@@
140.@@
redirected
disposals
federative
pcor
dressing
strongh@@
1397
uration
694
amenable
implementers
2000s
shur@@
gedeh
sr.8
realism
seafood
734
mec
dennis
furthered
yat
cica
gf
niamey
outnumber
ende
jobless
barring
823
deactivation
inal
heim
ober@@
coast@@
therewith
naturalized
0.05
expedient
socio@@
telec@@
gha
rashed
demobilize
demarc@@
micro-
salvage
slow@@
icides
empire
exponential
athle@@
mda
filip@@
bcpr
untreated
kiir
bedou@@
arize
ii.2
17.6
vega
9b
qah
bosco
haw@@
smr
frac@@
dness
stream@@
dvd
viruses
saad
u.n.
zurich
glaciers
jos@@
warden
politicize
glaring
bree@@
heroic
subsidizing
churkin
testifies
dul@@
eod
21.1
grief
zari@@
expec@@
hash@@
franco
cida
sareva
1493
tiles
ifa
sn
cere@@
profi@@
hegemony
773
taboos
elle@@
waf@@
effec@@
kri@@
insul@@
tram@@
shoes
surges
instrumentalities
adap@@
mayan
popularity
addi@@
photographed
icate
hey@@
provedor
bom@@
intelligent
lav
fur
thou@@
destruc@@
consign@@
captive
5063
12.45
courier
sr.38
manganese
elites
screens
albinism
aks
jacob
dpp
desi@@
dea
undisputed
113.@@
38,000
19.5
lt
anecdotal
ayan
qar
casablanca
marg@@
260@@
expedi@@
watersheds
discoveries
tok
lone
gel@@
iseek
inhabit@@
canton@@
booths
taxable
bare
reactivated
21.5
museveni
evaluator
betra@@
laud@@
lakhdar
mathematical
iad
practicing
unis
imm@@
foreword
booking
fix@@
buta@@
specul@@
spati@@
metallic
displace
liquefied
replenish
quet@@
kashmiri
caregiver
revam@@
fixtures
brokered
78.@@
escap@@
zeid
qana
morphine
lahi
interprets
distributive
magn@@
pers@@
spends
separatists
wanton
709
kö@@
banja
tapped
eruptions
obliging
backlogs
relaxation
opor@@
dehuman@@
ycle
gamb@@
undeniably
basics
vents
traw@@
yun
thinks
zion@@
matri@@
falsely
ethers
aines
devol@@
countered
148.@@
741
nicole
offerings
mindanao
qat@@
aris
sting
clu@@
injected
dining
dissip@@
melbourne
triggers
ific@@
vagu@@
vladislav
concor@@
midwife
unpa
convenes
organising
hinterland
bury
130@@
noticeably
ameral
subsaharan
transposed
0.25
uru@@
126.@@
north@@
trun@@
configured
stip
latent
stumbling
cp.7.
underpinnings
footwear
accentu@@
una002
unimplemented
yards
inmujeres
screenings
payloads
bioenergy
artefacts
dera
yel@@
transmissions
sni@@
helmand
subsidiarity
dda
quadripartite
cancelling
pment
cssa
complicating
pyramid
4790
cemac
ssness
goran
remitted
degrade
amputation
izi
xia@@
soroptimist
confiscating
fl
por
vie
technolog@@
tingly
14.
annihil@@
lcers
turkic
sidon
obstetrics
sham
préval
naked
liqu@@
outra@@
territoriality
ungi
tless
nuts
rell
khaz@@
paternal
absolve
lov@@
ingestion
eline
cros@@
cabral
tally
dedness
cherished
foreg@@
carmen
32,@@
tonne
volcano
branding
comity
sica
conf.157
wallcharts
ict@@
b.2
chevron
sigh@@
16.6
surpassing
providenciales
pass@@
eff@@
unsc
tunza
conceded
legacies
fiftysixth
djiboutian
profession@@
frf
conscript
komp@@
courtesy
aru@@
urine
ense
borderline
precaution
disbandment
69th
liaises
watched
geom@@
rol
sirleaf
ayo
s.org
thermo@@
ata@@
fili@@
955
reprehensible
paras@@
sym@@
nyam@@
drawbacks
2127
atti@@
untac
74th
inver@@
rev.3
pse@@
pentachlorobenzene
dare
1015
howard
pent@@
ictd
salama
metro
overpayment
stagn@@
appe@@
enshrine
iar
980
evils
1807
oj@@
adven@@
meningitis
plas@@
4.14
goekce
gna
foetus
ation.@@
xxxix
fijian
overshadowed
thouse
webcasting
evid@@
usal
onu@@
evangelical
ean
compilers
readable
sole@@
nicolas
pfosf
consults
lia@@
luci@@
specialize
rock@@
ght
superficial
inas
2010@@
momentous
18.4
blatantly
dshk
serviceable
eln
savimbi
taire
preser@@
aris@@
stagnated
oi
eless
tadić
nationalization
plc
disincentive
arbitrations
quater
late@@
retaliatory
wins
tangi@@
766
fluctuating
halo@@
ccaq
fascicle
'flaherty
terly
amalgamation
creole
onian
selects
weh
curiae
relaxed
wrongs
alle@@
graphs
cashier
italics
gag@@
unjustly
2205
douala
alias
fee@@
meted
717
803
789
transports
mainstay
deprivations
excavation
1472
bemba
habré
enjo@@
sluggish
consciously
aerosol
lea
dump
capsa
meyer
helen
sities
16.8
alt
dispense
unsecured
754
georg@@
overha@@
iccat
transpon@@
affluent
816
811
kal
ballo@@
mill
motu
901
ström
atsdr
fab@@
mobilisation
dicofol
798
zerrougui
ilfp
desperately
disbanding
spectral
flux
drr
gc.15
fundament@@
forfeited
baden
breathing
irrational
resp@@
coin
gandhi
mdis
persuasive
hre@@
quicker
firm@@
soaring
isl@@
blaise
toxicology
filtering
connor
reallocated
lords
dismayed
battlefield
abeyance
harbours
multiplying
signified
objec@@
cologne
powerless
resa
tunb
weighting
progres@@
flowers
stalking
havoc
3.7@@
webpage
ados
imam
owada
fluctuated
tance
igh
discourages
aco
xiao@@
triumph
tization
arg
pta
stipends
csc
asymmetry
amidst
dun
documentaries
11a
sach
theo
emitted
esb
oif
94@@
breakout
redirect
pbbs
vak@@
inconceivable
107.@@
isse
peoplesoft
summon
833
originator
794
arina
yant
1730
infertility
agbm
repudi@@
sah
msmes
korhogo
spotlight
realised
ariel
aprm
higgins
banjul
widowhood
nasi@@
gupta
exigency
unosom
ood
sirmium
boko
918
kick
domiciled
saud
rift
singaporean
slide
paraly@@
19.3
conclusively
berne
klaus
casing
bourgmestre
ander
affair
feb
subordinated
jaxa
alleviated
gypsies
shallow
unm@@
tranquillity
nationalism
ler@@
'b
amplified
outlaw
inadvertent
sdrs
rebound
rubble
avm
puri
liv@@
reporter
ohchr.org
anachronistic
figured
interconnectedness
pir@@
19.6
recapit@@
representativeness
postage
overexpenditures
sanders
2.3.1
aze@@
sidi
jahangir
unsuccessfully
freder@@
21@@
erez
nanotechnology
syrin@@
ladies
985
wai@@
heroes
safe@@
ouri
flourishing
luc@@
stars
grass@@
stanley
kilogram
lessee
oua
brian
drink
topographic
784
verse
putin
881
underreporting
pioneered
horror
str
a.2.
militiamen
oka
lachin
plethora
mammo@@
asthma
rebalancing
bioaccumulative
ois
retiree
redoubling
l.2.
congres@@
847
lends
harvests
versatile
2000a
sr.45
cend@@
centrifuge
recalculations
59,@@
roberts
ansar
alluded
880
kne@@
quickplace
ope
mechan@@
768
blindness
item@@
ifc
sahelo
10msp
zag@@
beaches
embro@@
assent
ww
sip
hanging
ostensibly
debriefing
groundbreaking
28a
paralegals
inertia
mra
blackmail
mail@@
exhausting
takasu
heated
advisories
www.unmultimedia.org
cult
coste@@
eing
refunded
echoing
rivera
esting
resses
camer@@
sahra@@
poaching
figu@@
dunums
tumours
achr
1145
imperfect
unfol@@
iser
megawat@@
reassignments
process@@
wooden
unavem
unethical
diminishes
evans
48,000
tigers
abdoulaye
rituals
wye
discredit
dispensation
multifunctional
kta
financi@@
noblemaire
hierarch@@
804
committal
19.8
concessionary
l.4@@
indo
breakthroughs
uls
capitalizing
pow@@
undp.org
15.
este
lee@@
embargoed
atm
cadastral
alfredo
acked
toolbox
avoidable
voluminous
contrasts
rue
iva
accus@@
penalizes
panel@@
enter@@
esp
journeys
aspir@@
gathers
barri@@
1.14
sentinel
yri@@
lawmakers
dangerously
fluoro@@
upheaval
975
transferee
chn
propagate
saha
cianciulli
river@@
alcoholism
annul
claim@@
tail
lif@@
80.@@
stag@@
method@@
confidentially
sr.9
ials
permissive
hesitation
119.@@
cascade
decon@@
inté@@
826
semin@@
brink
fli@@
fay@@
prejudiced
ı@@
shikka
nationales
resusc@@
tto
jennifer
817
gypsy
1596
sang
humanely
5.11
asse
nur
rek
unites
antwerp
readership
plural
qassam
middle@@
deferment
sama@@
codifying
fatima
cemeteries
l.73
chiyoda
unsmih
jwp
securely
wp.3
fiable
classifies
sted
clergy
minuci
23.1
articulates
kills
som
plains
misinformation
four@@
blankets
listen@@
mento
imperial
hasten
755
reshap@@
norte
luggage
tomka
sary
poison
detector
predicting
evapor@@
ancies
fbi
nassir
yama
whomever
đ@@
solids
eller
iccm@@
anthropolog@@
vik
70.@@
peuple
multiplication
tac
lined
3.14
benign
18.8
thorough@@
tti
mired
uma
candiweb
shia
redistributive
kras@@
sau@@
pernicious
dents
paced
seabirds
tips
chang
teaches
glor@@
yuri
gfm@@
perished
l.5@@
collegial
ultra@@
1997a
nn@@
decentralizing
jalibah
bacteria
inger
kl@@
vest@@
ár@@
bashar
819
mujeres
subsidization
centrifuges
adnan
ziegler
brokerage
malmö
demobil@@
uprising
bleeding
moto
lavrov
kumalo
divine
studios
jeddah
qi@@
nec@@
conf.iii
undefined
furans
carbon@@
jam
stifle
circuits
cci
parked
mv
younis
embed
helm
821
commute
713
plo
arranges
bl
periphery
antioquia
1532
buff@@
honey
es10
inter-
jap@@
conveni@@
siveness
wellington
cnes
isolating
mdri
ndiaye
julio
bounded
subdivided
multistakeholder
index.asp
restate
emir
heterogeneous
tionaries
dislocation
86.@@
mediating
insular
truc@@
convey@@
restar@@
secures
`alma
sensory
unanticipated
1923
quinquennium
fn
systematized
deng
moul@@
stomach
life@@
719
20.5
rocks
pedagogy
wrea@@
kus@@
abrogation
lithium
810
malarial
shipowners
tric@@
tablets
slogans
gent@@
appui
23.5
ciudad
coh@@
horticulture
3.1.3
poised
ammonia
unep@@
pharmaco@@
teleconference
insan@@
bomber
chang@@
mbe
block@@
azeri
recommen@@
decision@@
disburse
fracture
chanet
docket
upl@@
2e
eable
dispos@@
michelle
realigned
dossier
unve@@
18.7
biogas
successively
ashgabat
nabatiyah
practicality
lowincome
jeun@@
shark
32,000
gla@@
oum
2023
drag
ac.4
4.16
kp@@
soro
dhanapala
009
dina
cow
itarian
peg
cushion
retrogres@@
favor
barb@@
delegating
bundes@@
dani@@
greener
100,@@
yered
implementations
séguéla
purposeful
sela
cigarettes
spread@@
observable
tm@@
rpg
expropriated
declaratory
derail
arch
incited
infractions
chap@@
vectors
replenished
regularized
gren
observational
initiates
uncle
admiration
gru@@
novel@@
ure@@
cef
chair@@
tatmadaw
islamist
databank
smel@@
939
nj@@
morg@@
syphilis
salvation
princess
grievous
gordon
icsu
eg
ement@@
susp@@
reallocate
deportations
dec.1
plebiscite
chw.9
eras
enda
prophet
lessening
crosscutting
16a.@@
differentiating
clam@@
keyword
dini
daph@@
mazar
22.5
karemera
mehmet
breakdowns
atric
collated
availing
rudimentary
squad
protec@@
protector
dane
blindfolded
tual
realign
gunmen
cum@@
jovanovic
attracts
moi
proven@@
corp
853
lić
lef@@
lions
erratic
anda@@
therland
mikhail
río
sr.40
5.12
burma
marriageable
fédération
fiftyeighth
langu@@
resubmitted
chner
thers
isher
ross
802
}
centra@@
flu
viral
taxing
gilbert
resettle
somewhere
ecu
tying
omatic
scat@@
fad@@
wade
harsh@@
burgh
chy
gynaecology
spac@@
tell@@
legalize
ody
mismatch
arf
deu
nica
16.
desirous
notary
19.7
arbitra@@
habib
itte
phare
toler@@
ming@@
similarity
accumul@@
tempor@@
ş@@
20.7
desertion
precede
epis@@
arer
irritation
desecration
sterile
onen
gender-
etz
101st
wned
111.@@
depicts
euratom
2005@@
sham@@
holistically
reorganizing
tiger
attaché
ladder
reconstructed
oec@@
youngsters
supersede
shrines
120.@@
ande@@
cherif
baja
1932
acoustic
cht
ahwg
antagon@@
ener@@
fas
angar@@
expediency
still@@
stipend
relinquished
dense
minh
bala
sloven@@
procurements
2,00@@
3.2.2
cole
certifications
gp@@
lam
abraham
gesamp
beck
ail
barbara
persecu@@
tiny
tao
assi
exonyms
aling
deserted
ting@@
.html.
lal
olivier
gays
apologize
gem
blown
com.@@
alta
sundry
weakens
dilapidated
ako
harass
beninese
glori@@
heli@@
100th
puer@@
talbot
pablo
mano@@
council@@
aliyev
contraband
inappropriately
mmr
holes
ules
gérard
corroborating
downside
sympathizers
propositions
1320
corals
heightening
apologies
sr.41
bid@@
bossuyt
retentionist
copy@@
kono
eightieth
metallurgical
substituting
sorting
interdivisional
gotovina
pam@@
goos
beside
ya`qub
indis@@
3.11
anz@@
tells
carav@@
inert
cus@@
optimally
hatt@@
workflows
masked
acquis
asp@@
cp.18
lab
embryos
unloading
cun@@
johan@@
asma
52@@
iata
appearances
lb
domestication
doctrinal
loren@@
resur@@
2.7.@@
vene@@
thoughtful
gabriela
pc.2
uds
seynov
guy
osg
unpress
conditioners
bermu@@
liberate
mendoza
virtues
noncitizens
achments
vmes
joão
gunshot
caches
unoau
cery
818
eb.a
parliamentarian
klein
bongo
pleas
uta
signifies
kevin
relieving
56,@@
uled
stretching
perce@@
sement
23.2
brave
retriev@@
intercep@@
elevation
faf@@
aver@@
corrosion
idle
gravel
prospec@@
corr.2
reciproc@@
ativity
organo@@
relocations
strange
fourths
yala
ín@@
sayy@@
acca
ologically
letting
astronauts
evacuees
ifcs
thar@@
possessor
exhumations
loo@@
harbouring
mackay
eugen@@
ffa
commis@@
uélé
biomagnification
worms
objector
hreoc
sr.37
recce
asim
enrolling
yaw@@
grapple
abode
quantitatively
allegiance
gold@@
factoring
appraised
interacts
jacqu@@
sleiman
monument
grappling
abou
europeans
asing
807
landscapes
1.13
allay
vesti@@
waging
tapes
17.8
worlds
icu
buddhism
acha
aes
a.27@@
aret
hment
108.@@
sr.47
repri@@
mau@@
inferiority
rai
sil
cos@@
datasets
teleconferences
pollu@@
jd
commissari@@
enten@@
metrology
igf
drops
1120
hair@@
muster
tali@@
momen
nsg
expectant
895
arro@@
perez
silen@@
vt
www.un.int
lul@@
mono@@
cmp@@
104th
conceptions
sector@@
populous
conf.189
oso@@
synthesized
uplif@@
integ@@
monopolistic
craf@@
instrumentation
owes
idb.25
add.4.
450,000
cheng
offic@@
pragmatism
medell@@
incriminating
extraneous
minist@@
helplines
lash
seung
chron@@
vent
medina
comi
fifths
ologies
ph.d.
pastures
scrutin@@
crackdown
acks
20.2
cropping
radiated
911
danube
salih
koh
landsat
blog@@
qalq@@
prostitute
inf.3
bottled
decay
liv
insure
implementable
overburdened
9684
psychologically
recycl@@
pause
ii.c
mosqu@@
dmit@@
4.45
idb.34
boreholes
kuz@@
azo
guidebook
guatemal@@
borrowings
reg
encia
sanctuary
iwrm
darfur@@
unda@@
slu@@
zab@@
nac
complicates
dried
stefan
uncover
bles@@
haile
jack@@
wheelchairs
9.15
hallmark
spectre
episode
sernam
noaa
marcos
populace
wri@@
verge
shred@@
amicus
irc
destroys
nss
ige
sergey
artemisinin
vey
orange
bata
sulaiman
amer
rounding
bananas
dispensing
disablement
priest
accompli
729
validly
secretari@@
1998a
mwan@@
ccpoq
marries
landlord
wmds
cds
zy@@
adis
12,500
lled
meh
sena
ailing
arguable
997
891
regaining
entitle
shot@@
s2
touch@@
lenient
ambush
4x4
runway
invests
ented
offspring
lod@@
diarra
sorely
wb
unra@@
fail@@
note@@
kabbah
fixes
blockades
90th
vas
saturated
usability
touches
orio
hh
kosovar
l.75
outsiders
guéhenno
gnees
accuse
armour
georges
brookings
shattered
dino
presidium
nut
productively
paralympic
1882
hf@@
fric@@
carcin@@
2007a
intermediated
tremendously
vin
hindu@@
ghgs
indemnification
hill@@
bahamian
landlords
underlies
.un.org
addic@@
instructing
jul
edu
vertically
a.m.-@@
invertebrates
quotation
topography
oie
infliction
bong
yardstick
complains
acquies@@
distract
utrecht
philosoph@@
connects
fif@@
boven
exempting
bek
11.10
apprentices
sgp
whole@@
ur.
condens@@
slander
navig@@
overestimated
kic@@
odo@@
fork@@
welsh
tad
lv
.10
civ@@
ferry
integr@@
guiglo
maronites
ase@@
fumig@@
umi
untiring
couriers
hitting
ories
flyers
teur
enberg
entertain
tort
2094
abelian
ethno
exagger@@
0.20
kas
postings
disturb
digit@@
anew
councillor
1769
sr.48
cong@@
garments
fodder
odor
forma
.gov
silos
12.10
3d
970
rees
martín
fox
cide
{
masha@@
pip@@
overexploitation
isión
bcf
liabiliti@@
garnered
snapshot
derogated
mart@@
photovoltaic
lane
21.4
faouar
emphasises
tenet
sccp
promoter
internacional
inde@@
exhu@@
neutralization
sr.44
fem@@
subdivisions
eliminates
unconfirmed
875
dwindling
teries
20.6
forwards
fortune
silk
ician
nei@@
laureate
polytechnic
subsidi@@
angela
unam@@
hamid@@
1810
cont@@
17.
step@@
det
mason
idly
microbial
lari
ien
kasi@@
critic@@
cauca
compar@@
shah@@
spearheading
origin@@
iho
bern
vehicular
bioconcentration
eed
refrigerators
37,000
mirrors
measur@@
ico@@
crystal
soares
fallout
ambo
attributing
graphics
pluralist
000@@
modal
authenticated
slots
amateur
thriving
bioterrorism
796
upheavals
fortnightly
mohamad
finishing
pascoe
dubious
uemoa
wha@@
slated
paediat@@
therap@@
unci@@
organism
angeles
friedrich
iii.a
hyderabad
925
resorts
looming
Álvarez
861
invoiced
mercenarism
knife
103rd
sint
sayed
ometer
awi@@
4.2.@@
deferring
consum@@
hind@@
durability
oberlandesgericht
dame
miner@@
aides
ayas
unyearbook.un.org
sulfonate
disagrees
helpers
shoreline
24.2
abaka
zza
farid
unamir
leak@@
incrementally
albuquerque
kinship
buo@@
thé@@
preface
decentr@@
fig@@
chad@@
1296
refocused
oba
gp
drying
paran@@
c4
staunch
appropri@@
sives
amal@@
philanthropy
alluvial
1926
bris@@
predicament
solic@@
yad@@
carrera
intelsat
yerevan
oons
ethn@@
jaime
650,000
mous@@
kie
weaving
47,000
unf
incompetent
crippling
mü@@
hlcp
adjudicating
anderson
17.7
dispositions
quadru@@
defy
andro
inflexible
mailed
illusion
conciliators
830
earmark
marred
environment@@
larsen
assem
15.9
recycle
guayaquil
commonality
nico@@
reyk@@
bakassi
1889
kton
discussants
cea
meeting@@
resol@@
inapplicable
formality
jurors
davis
oke
1020
odes
anbar
1643
bill@@
bathymetric
ley@@
wah@@
spl@@
not@@
å@@
kuwaitis
class@@
afflicting
alumni
occasioned
badme
ltl
855
boston
ullah
issuers
manag@@
zakho
bone
downwards
hasty
body@@
ttes
wid@@
bens@@
raf
kni@@
unitar@@
newcomers
asteroid
greenstock
aby@@
127,@@
draw@@
reck@@
mped
forbid
archipelagic
pisg
eb.2
subs@@
ishments
intercept
poisonous
2035
neighboring
miranda
1date
intersecting
mlad@@
ronald
houston
theastern
sten@@
mahdi
unosat
cautiously
54,@@
kufpec
837
gaspar
fouling
juris@@
felix
19.4
eventuality
gradient
realizes
commemor@@
amadiyah
icio
oran
infl@@
bou
adherents
rays
wasteful
minimise
comprehension
awar@@
21.3
penultimate
plume
dissatisfied
bt
swee@@
hostels
pc.iii
concession@@
sliding
zonta
pardons
ough
estimations
destabil@@
sme@@
jaco@@
gujarat
4.1.2
clouds
rev.
buoy
warranty
journalistic
guaran@@
ionospheric
asser@@
bios@@
riv@@
tibility
bish@@
fingerprints
usher
adam@@
paralle@@
infringes
26.5
equate
jalalabad
overweight
forestall
ees
coer@@
recap@@
vigilante
garda
enta
assass@@
decreed
artawi
úl
denomination
acker
overes@@
diluted
bers
stoc@@
21.2
ionosphere
dé
europé@@
subordinates
vall@@
pits
bechtel
fierce
killers
ply
angol@@
ias@@
1936
mahmud
abductees
mok@@
890
internalization
republic@@
dressed
1430
fascicles
alfred
dhi
presum@@
71.@@
beautiful
architect
zon@@
25.5
soa
22.1
expedition
agri@@
downgraded
erik
erra
tortu@@
dock
spoilers
overstretched
cot@@
gms
mutilated
rm@@
september@@
21.6
theirs
discre@@
effluent
aggravation
idb.37
seventy@@
7.62
kismayo
prefectural
pereira
ania
tough@@
33,000
gustavo
vators
739
aerosols
augmenting
muth@@
reign
xico
crane
rupees
75th
s-
prefect
beh@@
tcers
deter@@
arbi@@
kwon
reviewer
locus
terra
eurozone
killer
nuremberg
khar
luiz
dedic@@
dragged
23.3
carnegie
instructional
nazis
genesis
bandits
gui@@
usha
coomaraswamy
78th
pered
mata
pascal
walker
nzl
edu@@
2001@@
milf
72nd
insu@@
bunkers
bil
profess@@
novo
insulted
aluse
ained
chab@@
mutin@@
crack
laura
echel@@
ashe
vida
960
ncp
funa
evol@@
proprio
tni
notional
shutdown
ceasing
centennial
slick
taboo
sulph@@
reputational
correctness
goats
dav@@
aichi
ketamine
michigan
1830
halved
○
gc.25
dans
espou@@
884
stress@@
insurrec@@
springs
resource@@
statistic
reassuring
biodi@@
sr.10
maldivian
typing
obscene
muto@@
greed
reimbur@@
boj@@
ombud
pens
schem@@
isp
guarantors
dana
ecm
juni@@
ationa
kron@@
alan@@
gardening
matt@@
verifies
bosniak
understandably
7.10
ngozi
instantan@@
hap@@
haï@@
1990a
legalized
singer
ej@@
bailiwick
l.18@@
oewg@@
1930s
43,@@
2.17
tex
frustrating
sle@@
868
harsher
scouts
ux
hah
thom@@
karni
formative
separates
tches
betro@@
cnm
ampu@@
chag@@
deliberating
eru
erection
scott
jani
opac
creators
guine@@
hexachlorocyclohexane
pulp
statu@@
old@@
lam@@
comprehend
helpage
add.18
vé@@
hang
crè@@
enlisting
steiner
majoor
amelioration
prepaid
biologically
construc@@
finalised
compels
dispossessed
demon@@
toponymy
rdf
pedestrian
theistic
106th
ditc
removes
wako
solidarité
808
mileage
emanates
benefitted
prec@@
stunted
hadžić
1115
vare@@
quarrying
amo@@
prov@@
sek@@
duplications
ole@@
attenu@@
boris
bozizé
ffer
icans
isomer
rano
ear
hereditary
sujud
bread@@
stigmati@@
christ
combatting
kadd@@
apolog@@
mca
hui
undersigned
pair
controversies
displacing
ssod
baht
receptacle
designator
opinio
redressed
coincidence
motors
bon
handicraft
nell
kish@@
1452
02@@
police@@
fascism
biennialization
1939
needle
kindi
alqaida
1822
radionuclide
mated
gerard
nta@@
invention
rahim
sman
aine
montser@@
insects
understaffed
intellec@@
pcn
undi
unas
staffs
auckland
cradle
rainforest
syllab@@
isesco
imparting
wic@@
eh@@
795
twentyfirst
fernandez
comra
ashes
denotes
unserviceable
córdoba
milošević
ako@@
radhika
tain
dik
ção
chat@@
absor@@
pneu@@
.12
1887
dar`a
app
ivoiri@@
train@@
banding
inventions
closes
andes
isotopes
adan
sr.11
transplantation
karimov
kah@@
trustworthy
lows
iap@@
djamel
booster
kassala
misdemeanour
milosevic
netting
dlr
rebut@@
dichotomy
mare
relentlessly
espoused
refurb@@
enthusiastic
meteor@@
diphenyl
leavers
inorganic
solubility
gain@@
curtailment
waiving
elucidate
gaap
airlift
cemetery
pb
multilater@@
khs
meticul@@
jeffrey
tribun@@
dragan
ainu
selections
houn
bengal
zimbabwean
0700
deo
cmr
manipulate
soccer
bernardo
respite
792
judici@@
valves
84.@@
general@@
cfe
sms
1919
2.16
pk
whistle@@
riya
beng@@
downsized
mistreated
annualized
invalidate
f1
170,000
nex@@
anticorruption
approx
shoulders
kälin
contextu@@
strived
fraudulently
propag@@
idb.2
leagues
hadji
ambushed
camara
rhe@@
mays
mourning
ilov
bookshop
reputable
vargas
828
jubilee
eif
coker
essentials
républic@@
drill
gaborone
disguise
communicates
levelling
nadi
kiwan@@
neoplas@@
beginnings
iler
seawater
baj@@
dairiam
fieldwork
segreg@@
cdi
sympath@@
adou@@
macedo
conom@@
slaughter
org.@@
aroused
hai@@
rada
apps
quis@@
resignations
parade
gazetteer
trivi@@
collectors
lasaf
culprits
soy@@
ruth
solas
aru
bane
842
unleash
aters
gall
draogo
uddin
rances
dissoci@@
rique
kris@@
brighter
weyne
pm@@
lay@@
rcus
histor@@
boos@@
tch
goz
priests
gc@@
tocs
strove
feed@@
2.6.@@
roundtables
cbos
catalogues
gratu@@
acetic
alexandre
arv
xxxii
trenches
tsb
nday@@
caritas
alp@@
irrit@@
gedo
absences
retali@@
1999@@
sensed
stos
alos
bauer
discovering
passages
adju@@
bath@@
catholics
iki
anwar
copied
tradable
10.50
andrés
belinga
eboutou
vicente
physiotherapy
stig@@
inaccuracies
esco@@
kd
1142
honor
debit
reso@@
npos
igc
²
mable
ensue
misguided
i.c
00,@@
sheltering
1.3.1
arithme@@
berto
rbb
ss.vii
862
134.@@
fah
evacuating
iner@@
83rd
rons
humanit@@
,000.00
porto
isc@@
carcinogenicity
elia
ontology
gloves
isf
jets
sunset
ées
croats
stewart
xin@@
marra
unfamiliar
gambian
fuelwood
2.1.4
tagged
minas
humili@@
plead
cyan@@
incidentally
converging
sabo@@
oia
redrafting
jib
encapsu@@
terri@@
tec@@
appor@@
kenema
84th
communicators
mem@@
quoting
inamu
bridged
rife
monov
rumbek
janu@@
rangeland
populaire
authored
lapsed
rush
839
antoine
zah
zor
piped
peso
nass@@
metabolism
trader
gvcs
viotti
vojvodina
baali
1535
clashed
ologic
frauds
harper
1010
responders
efs
fuse
silic@@
lawrence
813
stranded
sars
doomed
chronology
misrepresentation
koufa
praiseworthy
rightsbased
kumar@@
cdr
uterine
umar
66.@@
2040
synchronize
burst
diagnose
tained
vio
answerable
depicting
parti
banner
fron@@
after@@
uribe
1928
2.1.6
engul@@
Ş@@
sardenberg
zh
alls
apsing
wgec
ysa
underes@@
s.1
watercourse
dation
hri@@
boun@@
subjugation
bertrand
leachate
arria
iq
civilizational
mens
wastage
honestly
acro@@
kable
849
interrup@@
102nd
reunion
oliy
catching
feminine
facet
24.1
p6
tellers
tomy
marta
abo
ethnicities
wallace
onga
guiana
1995@@
subjec@@
3.25
index.sht@@
reinforcements
sabo
čević
iah
bai
crossfire
trib@@
superse@@
nose
familiarization
xing
achi@@
egyp@@
offsets
faulty
fenced
shrapnel
then@@
waldock
idan
baa
42,000
ian@@
surgeons
demb@@
fic
assimilated
government@@
jak
azinphos
incess@@
mdg@@
pleasant
blend
medium@@
22.2
inks
minimis
summed
later@@
psychiatry
alu@@
afterno@@
ré
busayyah
enclave
tarai
mexic@@
1,08@@
iaap
musharraf
a.3
l.76
puzz@@
enyi
particul@@
opa@@
inate
addy
portability
utilised
alya
ub
incom@@
humidity
pep@@
olf
reconc@@
gary
skaya
distor@@
kevich
jaffna
oversaw
caledonian
hua@@
monu@@
nominee
makeshift
hp@@
tampere
alaska
corrosive
duplicates
reinsurance
42,@@
credit@@
23.7
extinguished
sulfonic
revis@@
tsd
crust
geoscience
marti@@
turbulent
jim@@
intravenous
hagen
230,000
depos@@
forecasted
boar@@
xliii
constan@@
wrought
1.20
thessaloniki
rcu
999
artist
zawr
spokespersons
bachelet
unremunerated
838
reconstructing
aspires
ência
woven
dara
watchdog
aut@@
mary@@
relaunching
overempha@@
repress
locals
endra
predators
leapfro@@
1035
corp.
1894
cutbacks
obligating
c6
1530
yla
praia
supp
ccc
summarised
nepali
typho@@
université
dec.15
ironically
temperate
sells
untrue
urbanizing
respon@@
hcc
apri@@
revises
mn
ctor
vens
incinerators
aston@@
bds
delineating
agi
diagnoses
umba
uru
pfi@@
microeconomic
wealthier
photocopiers
insidious
vinyl
predatory
pathy
pulse
inspectorates
wies@@
transgres@@
picket
utc
vandalized
tegucigalpa
plumbing
générale
capitalist
1d
melanesian
manifesto
genes
misinterpretation
240,000
hyperlinks
faroese
synerg@@
agdam
l.4.
unmeer
peril
courtesies
husayn
legen@@
compan@@
disappearing
fifa
gazetteers
creatively
wis
lengths
appiah
steadfastly
ored
simulated
restric@@
81st
sr.43
jin@@
unswer@@
nsa
excer@@
sá@@
lula
bpoa
foetal
desktops
masi@@
1215
amicably
irg
blows
encumb@@
nwf@@
françoise
ativeness
l.74
localization
903
das@@
styles
crowding
summing
anu
phosphorous
normality
wardens
illes
inpatient
3357
thetics
spdc
orchards
wolfe
mohsen
citation
biom@@
gibral@@
timation
rwasa
rulers
gusta@@
trating
dead@@
tam
sepúlveda
totalitarian
2048
avail@@
commuting
sation
ferences
rev.4
pend@@
tractor
arization
conf.htm.
beneath
ruins
longitude
unexplained
coltan
gin@@
cisco
unleashing
`s
radius
sharpened
complaining
synchron@@
88th
roundabout
umu
omas
sr.22
791
information@@
simms
hdr
categorize
25.1
espa@@
ceram@@
territorially
sie@@
zan
phal@@
tsa
mozambican
shed@@
banco
exorbitant
degradable
rohingya
unsound
crvs
pei
greenpeace
concealing
aber@@
orchestrated
un.@@
kash@@
tent
14001
manoeuv@@
aytarun
federalism
burglary
ell@@
syner@@
ge.99
sala
crafting
ecpat
scho@@
tributyltin
disinformation
friendliness
crp.8
liaised
24.3
slo@@
toyota
unsupported
1250
caters
tainted
6.05
underreported
mine@@
accustomed
mind@@
lando
tarily
laurentis
medico
sikh
22.3
frauds@@
keting
829
kass@@
equator
fort@@
murde@@
licensees
ply@@
149@@
20.3
abundantly
ashed
1994@@
20.8
kama@@
fraternity
824
ffec@@
57,000
hexachlorobenzene
zai@@
wasting
0406
timeframes
orphan@@
grip
abstr@@
rs@@
1173
atra
ene@@
kingly
agreeable
kot
smuggle
iswgna
caf
holkeri
discrimin@@
unmih
midrand
sali@@
alphabe@@
add.20
gob
sard
inging
lm
wning
xl
3m
mé
lp@@
mekdad
pillaging
bottles
ostrac@@
reconfirm
parish
35.@@
kovic
week@@
ação
will@@
repor@@
10.40
ecuad@@
105th
ured
sivity
tunn@@
19.
eming
airstrips
nabil
remitting
ammonium
17.9
mechanic
purportedly
transnistri@@
1934
897
aso
warplane
uzb
inhibi@@
vlad@@
nourishment
misperceptions
loaned
ml.
82nd
onslaught
arrays
2d
uprooting
obligates
eloquently
mambasa
motto
estoppel
undetermined
inciner@@
coll
ferrer
rna
backwards
myth
arta
instigating
curious
atis@@
tenuous
universit@@
sceptical
decoupling
mation
unoda
atlan@@
kirsch
sr.39
aq
youssef
teeth
a.4
discriminations
sequenced
globalisation
secessionist
muy@@
arma
maud
subproject
eloquent
calam@@
itating
ecom@@
inconvenience
reim@@
2139
transcends
yers
treas@@
henri
vented
27.3
tter
869
firewall
heterogeneity
hegemon@@
ecumenical
latitudes
prefects
engo
inher@@
pastoralist
p2
rsd
caadp
flag@@
prendergast
annis
paris21
ordinated
1210
hears
barbed
divul@@
intestinal
faceted
lessen@@
procedurally
ew
1,250
gawa
tenango
amé@@
186.@@
mclurg
denominational
reuters
904
843
114,@@
niy@@
greeting
petitioned
dip
lov
cheon
ancestors
onuci
12,0@@
endor@@
giorgio
tif
itsd
dioxin
scored
date@@
travel@@
clar@@
uro@@
gestures
tera
enly
columb@@
unsecoord
judiciaries
komatina
chw.10
leasehold
inaccessibility
ordeal
undernourishment
118,@@
gd@@
reaping
idb.31
2977@@
depend@@
2001a
concerts
exempl@@
aman
trunking
paramedical
birao
prud@@
lubanga
instilling
infirm@@
enforces
familia
107th
wild@@
pem
vir@@
oip
icating
anaes@@
ouest
specializations
barrister
chw.11
atable
shaken
penit@@
bee
uss
asymmetrical
24.5
randomly
guadal@@
ashkali
220,000
qaeda
2.1.5
haq
gif@@
morph@@
monarchy
sey
porter
redeploying
rical
mew
surpass
supermarkets
regressive
57,@@
tracting
pardoned
lynn
insightful
03.@@
irbil
sangar@@
steered
gaseous
probe
psychiatrist
defra@@
imperfec@@
unbudgeted
18.9
requisitioners
phi
una028@@
africaine
chandra
scal@@
additives
vires
solvency
cumb@@
elevate
unimaginable
enmity
acquain@@
33.3
73rd
replen@@
compaoré
transmitter
icf
add.19
turb@@
minnesota
distribu@@
hran
kaz
kand@@
echa
tyranny
script
injections
opaque
defamatory
l.3.
gnjilane
monthe
senseless
27.6
fou@@
ablu@@
extern@@
femme
exacerbation
muammar
113@@
relays
sr.42
youtube
23.4
20.4
radionuclides
advertise
manu@@
greenfield
corr
24.8
mcdou@@
Ñ@@
transcri@@
coopers
qus@@
oting
.11
bankers
intersessionally
vable
expensed
cochairs
isons
inflated
amu
mamoto
galvanized
slotting
dato
bogota
defeating
glonass
manfred
shay@@
l.2@@
4.3.@@
alternating
zur@@
achim
summonses
banza
enfor@@
risking
res.
gonaïves
dha
2.2.3
awak@@
andrei
designers
assembling
abdelfattah
gus
antananarivo
İ@@
cospar
ensla@@
acronym
b.4
seminal
mey
hona
sorabjee
ever@@
niger@@
ayi
redistribute
pine
zü@@
intensi@@
spillovers
'etat
bestowed
oly@@
antónio
unl@@
peculi@@
clemency
anglican
js7
tang
renovate
aspiring
uka
krish@@
liquid@@
indepth
yale
à@@
negev
cra
offline
pv.4@@
consents
thefts
reintroduction
juárez
zealanders
française
22.7
d9
aic
butadiene
vna
ror@@
demarcated
39,000
workspace
nsw
rene@@
afflict
minni
zib@@
incendiary
expansionary
expropri@@
molec@@
redefinition
trau@@
roosevelt
1617
dpu
vocal
compto@@
administr@@
masculine
chamor@@
enquire
lahore
civicus
byron
mbtoc
canteens
underemployed
ernesto
utterly
prolonging
digitized
veri@@
baz@@
harmonisation
galvanizing
yahya
airstrip
contemporan@@
dai@@
dispensaries
paradoxical
preven@@
1110
switched
tpn
gusmão
faul@@
onomic
constrains
alam
share@@
rojas
1833
penalization
mohd
surfaced
gbarnga
romana
minimizes
aç@@
bering
rita
eigh@@
28.5
dest
mahar@@
26.4
undated
scanner
cilss
chit@@
readjust@@
rae
1937
devinfo
haj
kiswahili
donate
manslaughter
867
chor@@
littoral
puberty
836
ii.
mercur@@
intercontinental
magistra@@
icity
58,@@
gree@@
angel
oy
1510
spectacular
budge@@
argu@@
diagram
delinquents
stroke
barack
aliev
910
lineal
terrorize
plenty
multipurpose
overhang
slpp
992
tab
mø@@
kob@@
tfs
predefined
sustains
pw@@
orche@@
nuanced
paa
1630
eto
aan
possessory
petit
phor@@
consonant
oficial
cour
guo
inin
81.@@
coroner
universalisation
sculp@@
ulescu
lr@@
ife
disrup@@
jos
jmpr
3.12
gaab
mole@@
117,@@
otc
downturns
leoneans
throw
pswg
eran
5000
cd.int
waterway
add.21
masculinity
pygmies
cataloguing
mate@@
abani
hakam
ater@@
width
alcoholic
agglomer@@
veil
hud@@
nt
nana
monograph
cola
decor@@
fac
mnf
roadside
submunition
adul@@
separ@@
melinda
dec.7
conceive
odccp
brčko
1.1.4
nowak
eminence
simplistic
saries
mended
bereaved
itus
minster
immaterial
chemically
atro@@
thermometers
calendars
ien@@
mechanized
kasai
withdraws
wg.iv
ears
wp.4
gems
niv@@
federally
resources@@
chamb@@
ummah
arianism
cares
contours
grabbing
here@@
unifeed
int@@
retardant
instigate
aguil@@
machel
áñez
humanist
cens@@
chlorofluorocarbon
wha
coerce
1.a
assidu@@
commanded
wellness
presume
005
109th
sadness
chau@@
apls
vrs
dju@@
kod@@
jing
mar.
appris@@
izer
impregn@@
saeed
marginalised
29d
1005
mates
infiltrate
plunged
katrina
22.6
tailings
hexafluoride
syndication
ihrc
elena
uo@@
sbc
tentage
ramírez
felony
echo@@
airfares
aalma
pressreleases
16.9
propensity
munir
lah@@
infec@@
ll.@@
bwa
nul@@
denktash
isol@@
copax
underfunding
conf.98
penetrate
10.35
ition
ondo
sometime
carpentry
passion
mocho@@
clark
dorf
roger
jib@@
giant
depict
120,@@
vitro
sr.12
syndicates
£
retarded
avi
ephedrine
mtcr
rep.
pdes
ected
lutheran
pis@@
make@@
disp@@
indexation
faring
ebrd
pentachlorophen@@
lett
druze
steri@@
fanaticism
agre@@
dov@@
1593
untmih
ernest
gw@@
rptc
cevic
rig
1941
incurs
dormitories
subcontinent
irb
wiel@@
patriots
persuasion
857
rbp
amortization
percep@@
photol@@
cherniavsky
homogenous
perishable
dugard
collector
ning@@
grained
merchants
defen@@
kinson
propriety
orph@@
fruitless
z.@@
4.1.3
anniversaries
géné@@
rhine
cath@@
arities
yarm@@
autonomously
prism
lio
jiménez
hn@@
885
ncd
volati@@
tique
retre@@
4.20
abscon@@
discern
cmp.7
manure
hp
intim@@
uc
11.20
reformulate
dots
amer@@
overs
help@@
brit@@
business@@
outa
erup@@
chiang
ksh@@
wheelchair
rako@@
reorienting
sle
corpor@@
favorable
aircrew
algorith@@
germans
maastricht
harb@@
corpses
john@@
magdal@@
descend@@
alian
sr.23
faw@@
a.s.
redesigning
geoss
phys@@
rectification
lars
blair
gently
stationing
queu@@
muta@@
environnement
reproducing
fep
dade
sittings
unil@@
dismal
gated
staggered
meso@@
cauc@@
thematically
pellet
69,@@
cropland
parap@@
cmc
1542
antimonopoly
1850
registr@@
herald
abc
renouncing
nucle@@
judaism
dormant
delgado
sheikha
acis
okinawa
943
invisibility
21.7
abbreviated
acade@@
tyl@@
socdev
fernan@@
bnp
80th
nrc
corrigenda
gonz@@
gradnja
851
tini
stature
esf
ende@@
janin
persuading
innumerable
cze
28.3
karak@@
geries
fdr
946
gco
subsystem
french@@
strips
zaki
pennsylvania
suleiman
afi@@
biblio@@
gambling
servicemen
addafi
venice
4.25
mapuche
proton
thereupon
ac.10
ulia
guide@@
thu
trophic
abet@@
pement
rá@@
835
bilities
85th
finger
siber@@
amch@@
ives
10017
massacred
osphere
lf@@
expo@@
choc@@
lud@@
henko
fdn
yach@@
osat
mutiny
lum@@
ttf
zelaya
934
light@@
proofing
kitchens
binds
duce
irrefu@@
amap
unscrupulous
shad@@
majorities
jumped
veto@@
rakh@@
businesswomen
blending
resi@@
toul@@
redistributed
excre@@
ethic
edon@@
31@@
sai@@
acquaint
agend@@
situ@@
ister
ivory
rodol@@
879
hail
exemplifies
appellants
fidelity
straw@@
irregularity
who.int
pronouncement
procurators
weal@@
photocopying
misdemeanours
nouakchott
baev
mourad
alasaniya
credibly
55,@@
zun
abdelk@@
nutri@@
remiss
ós
kail@@
confin@@
ehu@@
unef
mighty
impressions
mnla
automate
tommo
2009a
admirable
clips
rhy@@
shirts
2005a
cic
standar@@
yem
revisers
nw@@
cumulatively
och
gua
typologies
format@@
uplo@@
12a
apping
mislead
caucuses
subcontract
atha
29e
affection
trout
recogniz@@
blue@@
urb@@
tabling
ridic@@
hydrochlorofluorocarbon
.net
daytime
arism
compartment@@
tailing
nseng@@
carats
chicken
agon@@
77th
vitebsk
rober@@
jama
chal@@
ington
derogatory
alumin@@
pcdd
ared
s.2
multiply
perpetual
positionsb
carter
wri
indu@@
saxony
symbiotic
automobiles
unaffordable
seattle
fervent
falsi@@
azione
brahim
horizon@@
chris
diem
24.4
newfoundland
mun
quotes
wati
eutelsat
nil@@
scarcely
arma@@
gl
logged
una023
fwcc
882
spelt
ysis
pill
zuma
cannon
nargis
lob@@
sr.29
tad.org
node
22.8
patented
85.@@
dant
guantanamo
systematization
barnuevo
nchr
bankrupt
entes
worry
bienn@@
úbl@@
middle-
strands
shif@@
airbase
jit
91st
lind@@
ave@@
naphthal@@
resett@@
pkm
marshal
iai
cynical
coll.
informality
redevelopment
12.20
renegotiate
politico
derogating
sent@@
iction
reoriented
transitory
aggressions
ltu
constructions
methodist
darwin
25.6
exu@@
democratize
atus
baf@@
extracurricular
1405
stern
tcbms
doubtless
drin
slaugh@@
matignon
cab
unep.@@
clearest
e.96.@@
tpl
puppet
l.77
tractors
bean
mobilizes
memorials
cnn
amp@@
homepage
diversions
martinez
painstaking
explode
ser.c
lloyd
centered
maximization
2-
tenge
sorry
circulatory
phrased
147.@@
ac.257
leak
americana
sacrificing
1943
entrusting
refres@@
scoring
zen
abdi@@
java
pains
bei
hamah
20082009
requisi@@
hindi
vienn@@
nour@@
whereupon
85,000
phe@@
iao
euro0.@@
cristina
laf
erie
upturn
dles
bdi
tool@@
s.pdf
bull@@
53,@@
mitchell
58,000
l.79
itan
coefficients
bulldozer
2i
tpns
opp@@
testi@@
sr.34
infe@@
cadastre
c3
d4
undemocratic
digging
gill
anthropology
d8
ecdc
radioactivity
injunctions
gitega
pfc
sari
handcuffs
pha
3.2.3
suk@@
cock
cetaceans
ncsa
hic@@
fundamentalism
textual
instig@@
dissuasive
cede@@
secretly
eviden@@
interpretive
tsi@@
occi@@
hotspots
recipe
lucf
contiguity
parastatal
undisclosed
hamb@@
abrogated
opsc
outrageous
ails
1040
vx
brothel
ziou@@
accredit
arbour
2006a
undac
hereof
metabolites
hesitant
impeac@@
ridges
medics
beef
ctf
[...]
